<s>	0
</s>	0
<pad>	0
<unk>	0
!!	-0
..	-1
。。	-2
▁我	-3
!!!!	-4
][	-5
~~	-6
....	-7
哈哈	-8
▁[	-9
一个	-10
啊啊	-11
我们	-12
自己	-13
什么	-14
没有	-15
...	-16
!!!	-17
你们	-18
▁这	-19
就是	-20
今天	-21
我的	-22
不是	-23
??	-24
喜欢	-25
可以	-26
!!!!!!!!	-27
......	-28
现在	-29
时候	-30
还是	-31
。。。	-32
大家	-33
的人	-34
知道	-35
真的	-36
怎么	-37
这个	-38
他们	-39
▁你	-40
啊啊啊啊	-41
▁不	-42
快乐	-43
这样	-44
中国	-45
··	-46
看到	-47
因为	-48
//	-49
那么	-50
这么	-51
希望	-52
//@	-53
开心	-54
都是	-55
▁//@	-56
00	-57
你的	-58
还有	-59
~~~~	-60
。。。。	-61
感觉	-62
朋友	-63
觉得	-64
的时候	-65
一直	-66
▁有	-67
▁哈哈	-68
真是	-69
爱你	-70
的是	-71
出来	-72
已经	-73
一起	-74
TT	-75
人的	-76
▁今天	-77
所有	-78
不能	-79
~~~	-80
了一	-81
![	-82
20	-83
谢谢	-84
但是	-85
孩子	-86
的一	-87
不会	-88
发现	-89
让我	-90
抓狂	-91
感谢	-92
爱的	-93
▁一	-94
到了	-95
开始	-96
给力	-97
起来	-98
55	-99
好的	-100
如果	-101
幸福	-102
一样	-103
不要	-104
世界	-105
▁好	-106
一次	-107
只是	-108
很多	-109
那个	-110
▁在	-111
--	-112
哥哥	-113
最后	-114
▁我们	-115
木有	-116
时间	-117
加油	-118
工作	-119
的事	-120
都不	-121
10	-122
其实	-123
虽然	-124
为什么	-125
am	-126
一下	-127
然后	-128
生活	-129
一定	-130
不起	-131
偷笑	-132
电话	-133
看着	-134
终于	-135
居然	-136
北京	-137
的小	-138
给我	-139
????	-140
——	-141
那些	-142
▁可	-143
东西	-144
微博	-145
晚上	-146
永远	-147
一天	-148
为了	-149
妈妈	-150
明天	-151
非常	-152
呵呵	-153
鼓掌	-154
是我	-155
这些	-156
问题	-157
不过	-158
可爱	-159
11	-160
。[	-161
也不	-162
amp	-163
!!!!!!!!!!!!!!!!	-164
结果	-165
一个人	-166
有点	-167
只有	-168
嘻嘻	-169
大的	-170
尼玛	-171
突然	-172
自己的	-173
▁@	-174
以为	-175
应该	-176
去了	-177
心情	-178
所以	-179
来的	-180
啊啊啊啊啊啊啊啊	-181
各种	-182
支持	-183
相信	-184
蛋糕	-185
昨天	-186
这种	-187
每天	-188
祝福	-189
不知道	-190
如此	-191
生日	-192
这是	-193
手机	-194
老师	-195
▁他	-196
不到	-197
回家	-198
我是	-199
继续	-200
让人	-201
不错	-202
几个	-203
国家	-204
▁看	-205
也是	-206
电影	-207
多少	-208
我就	-209
人家	-210
我了	-211
日本	-212
母亲	-213
竟然	-214
▁现在	-215
有木有	-216
这样的	-217
哈哈哈哈	-218
▁真	-219
公司	-220
照片	-221
男人	-222
期待	-223
以后	-224
努力	-225
地方	-226
原来	-227
回复	-228
日子	-229
社会	-230
▁还	-231
不想	-232
来了	-233
是不是	-234
▁很	-235
心里	-236
需要	-237
可怜	-238
女人	-239
总是	-240
而且	-241
大学	-242
年的	-243
这里	-244
▁老	-245
神马	-246
ot	-247
一点	-248
来越	-249
越来越	-250
TTTT	-251
........	-252
in	-253
▁当	-254
别人	-255
死了	-256
电视	-257
第一	-258
▁如果	-259
▁就	-260
不好	-261
各位	-262
小时	-263
我们的	-264
qu	-265
上海	-266
奥特	-267
我也	-268
特别	-269
奥特曼	-270
两个	-271
政府	-272
教育	-273
····	-274
▁但	-275
下午	-276
好烦	-277
最近	-278
的大	-279
看看	-280
▁(	-281
▁今	-282
▁刚	-283
不了	-284
不得	-285
宝宝	-286
还要	-287
▁希望	-288
的感觉	-289
quot	-290
好烦好烦	-291
~[	-292
▁祝	-293
人民	-294
▁这个	-295
2011	-296
▁那	-297
上的	-298
个人	-299
可能	-300
很好	-301
感动	-302
▁谢谢	-303
▁是	-304
告诉	-305
心的	-306
的话	-307
讨厌	-308
an	-309
有人	-310
▁尼玛	-311
),	-312
想到	-313
是一	-314
活动	-315
现场	-316
死我了	-317
▁要	-318
实在	-319
害羞	-320
明白	-321
睡觉	-322
▁我想	-323
分钟	-324
到底	-325
在我	-326
好多	-327
一切	-328
他妈	-329
他的	-330
有些	-331
难道	-332
▁虽然	-333
▁还有	-334
伤不起	-335
~~~~~~~~	-336
之后	-337
无法	-338
百姓	-339
辛苦	-340
▁你们	-341
亲爱的	-342
er	-343
健康	-344
几天	-345
吃饭	-346
好好	-347
早上	-348
花心	-349
里面	-350
太开心	-351
!!!!!	-352
?!	-353
》,	-354
只能	-355
只要	-356
可是	-357
同学	-358
回来	-359
节目	-360
身边	-361
还没	-362
的事情	-363
5555	-364
oo	-365
▁小	-366
代表	-367
准备	-368
多么	-369
学校	-370
意思	-371
音乐	-372
领导	-373
▁昨天	-374
哥哥哥哥	-375
30	-376
▁=	-377
本来	-378
样的	-379
每次	-380
温暖	-381
节日	-382
说我	-383
▁其实	-384
真的很	-385
了吧	-386
了我	-387
关注	-388
学习	-389
生命	-390
真好	-391
▁不过	-392
▁因为	-393
▁感谢	-394
on	-395
▁哎	-396
▁她	-397
完全	-398
▁大家	-399
▁天	-400
▁太	-401
以前	-402
作为	-403
值得	-404
好了	-405
容易	-406
过去	-407
都有	-408
哈哈哈	-409
的日子	-410
,,	-411
下去	-412
下来	-413
了个	-414
变成	-415
她的	-416
成功	-417
漂亮	-418
的那	-419
都没	-420
▁回复	-421
那么多	-422
。。。。。。。。	-423
TM	-424
不住	-425
人生	-426
唯一	-427
我会	-428
我要	-429
是个	-430
过的	-431
里的	-432
▁中国	-433
▁大	-434
▁对	-435
▁说	-436
不用	-437
太阳	-438
学生	-439
曾经	-440
的我	-441
礼物	-442
祈祷	-443
简单	-444
记得	-445
过了	-446
除了	-447
一定要	-448
有没有	-449
都没有	-450
▁想	-451
一种	-452
上了	-453
就不	-454
离开	-455
给你	-456
美的	-457
200	-458
▁但是	-459
▁为	-460
▁无	-461
企业	-462
我想	-463
找到	-464
看见	-465
美好	-466
蜡烛	-467
衣服	-468
▁一个	-469
15	-470
▁又	-471
不敢	-472
句话	-473
回忆	-474
城市	-475
文化	-476
有多	-477
绝对	-478
美国	-479
你们的	-480
!!!!!!	-481
▁再	-482
▁没	-483
上班	-484
不知	-485
事情	-486
任何	-487
儿童	-488
出去	-489
医院	-490
味道	-491
多了	-492
必须	-493
超级	-494
跟我	-495
路上	-496
▁怎么	-497
的朋友	-498
生日快乐	-499
可怕	-500
委屈	-501
媒体	-502
心中	-503
新闻	-504
机会	-505
看了	-506
真正	-507
短信	-508
设计	-509
都能	-510
高兴	-511
可爱的	-512
12	-513
▁从	-514
一些	-515
也很	-516
于是	-517
今年	-518
做的	-519
家里	-520
我在	-521
我还	-522
或者	-523
把我	-524
明明	-525
晚安	-526
甚至	-527
见到	-528
重要	-529
飞机	-530
▁我的	-531
就可以	-532
不同	-533
两天	-534
分享	-535
基本	-536
宝贝	-537
家人	-538
消息	-539
爱心	-540
第二	-541
表示	-542
????????	-543
▁,	-544
▁哇	-545
伤心	-546
你是	-547
参加	-548
嘿嘿	-549
坚持	-550
就算	-551
所谓	-552
新年	-553
有的	-554
注意	-555
演唱	-556
理解	-557
的不	-558
结婚	-559
考试	-560
能够	-561
身体	-562
选择	-563
都很	-564
里有	-565
高考	-566
～～	-567
节快乐	-568
▁M	-569
▁最	-570
▁谁	-571
先生	-572
历史	-573
围脖	-574
大笑	-575
如何	-576
成为	-577
才是	-578
挖鼻	-579
每个	-580
游戏	-581
痛苦	-582
的老	-583
直接	-584
结束	-585
认识	-586
还不	-587
韩庚	-588
100	-589
▁加油	-590
▁明天	-591
挖鼻屎	-592
真的是	-593
?[	-594
▁也	-595
▁人	-596
不懂	-597
中秋	-598
令人	-599
儿子	-600
关心	-601
出了	-602
出现	-603
即使	-604
吃的	-605
安全	-606
带着	-607
我不	-608
根本	-609
比赛	-610
民族	-611
的心	-612
瞬间	-613
转发	-614
辈子	-615
ood	-616
在一起	-617
让我们	-618
~~~[	-619
之前	-620
你说	-621
依然	-622
同事	-623
后来	-624
哪里	-625
声音	-626
年轻	-627
微笑	-628
忘记	-629
整个	-630
明星	-631
更多	-632
果然	-633
眼睛	-634
粉丝	-635
美丽	-636
这一	-637
阳光	-638
▁可是	-639
▁真是	-640
SS	-641
en	-642
▁都	-643
、、	-644
一张	-645
三个	-646
不管	-647
中午	-648
兔子	-649
发生	-650
女儿	-651
平安	-652
成了	-653
昨晚	-654
有一	-655
来说	-656
样子	-657
涨价	-658
电脑	-659
的好	-660
纠结	-661
而是	-662
肯定	-663
走了	-664
还能	-665
顺利	-666
▁呵呵	-667
▁看到	-668
▁还是	-669
这么多	-670
----	-671
▁为什么	-672
恨死我了	-673
50	-674
el	-675
▁别	-676
下的	-677
不说	-678
今晚	-679
作品	-680
其他	-681
图片	-682
女孩	-683
姐姐	-684
存在	-685
宣传	-686
就要	-687
年了	-688
房子	-689
收到	-690
服务	-691
比较	-692
没人	-693
羡慕	-694
让你	-695
都在	-696
···	-697
▁所以	-698
▁没有	-699
恨死我了恨死我了	-700
13	-701
你不	-702
又是	-703
周末	-704
和我	-705
嗷嗷	-706
姑娘	-707
客户	-708
想起	-709
效果	-710
无聊	-711
机场	-712
的说	-713
等待	-714
精神	-715
自然	-716
舞台	-717
认为	-718
???	-719
▁他们	-720
▁我是	-721
了一个	-722
所有的	-723
的地方	-724
good	-725
XX	-726
▁早	-727
不再	-728
中的	-729
享受	-730
力量	-731
地震	-732
大了	-733
年前	-734
打开	-735
故事	-736
父母	-737
这次	-738
那里	-739
演唱会	-740
第一次	-741
好烦好烦好烦好烦	-742
▁唉	-743
也没	-744
了啊	-745
以及	-746
兄弟	-747
全国	-748
六一	-749
压力	-750
吃了	-751
天天	-752
太多	-753
好看	-754
妈的	-755
完了	-756
情况	-757
感冒	-758
我都	-759
才能	-760
推荐	-761
现实	-762
生病	-763
眼泪	-764
着你	-765
确实	-766
简直	-767
色的	-768
话说	-769
身上	-770
过来	-771
还在	-772
都要	-773
出来的	-774
给我们	-775
美好的	-776
2010	-777
伤不起啊	-778
!!!!!!!	-779
ar	-780
▁1	-781
▁2	-782
一句	-783
习惯	-784
交通	-785
人了	-786
依旧	-787
全部	-788
关系	-789
刚刚	-790
原因	-791
后面	-792
得到	-793
恭喜	-794
想你	-795
感情	-796
有个	-797
着我	-798
鄙视	-799
啊啊啊	-800
打电话	-801
],	-802
le	-803
lo	-804
▁-	-805
▁3	-806
▁爱	-807
一看	-808
也有	-809
也要	-810
休息	-811
团队	-812
坑爹	-813
如今	-814
工资	-815
干嘛	-816
当时	-817
感到	-818
愿意	-819
方式	-820
无论	-821
是在	-822
欢乐	-823
每一	-824
爱情	-825
老妈	-826
说的	-827
那种	-828
面前	-829
马上	-830
喜欢的	-831
老百姓	-832
.....	-833
PS	-834
▁上	-835
一会	-836
一年	-837
一条	-838
三八	-839
产品	-840
会有	-841
保护	-842
和你	-843
天气	-844
妇女	-845
家的	-846
寂寞	-847
属于	-848
广告	-849
广州	-850
建议	-851
影响	-852
感受	-853
是最	-854
梦想	-855
清楚	-856
老板	-857
而已	-858
舒服	-859
责任	-860
部分	-861
默默	-862
▁今晚	-863
▁我要	-864
一直在	-865
他们的	-866
节日快乐	-867
啊啊啊啊啊啊啊啊啊啊啊啊啊啊啊啊	-868
TA	-869
||	-870
▁啊	-871
▁请	-872
下班	-873
人在	-874
估计	-875
保持	-876
写的	-877
卫视	-878
名字	-879
坚强	-880
威武	-881
子的	-882
完美	-883
对于	-884
就像	-885
当然	-886
彻底	-887
心疼	-888
恶心	-889
有种	-890
正常	-891
毕业	-892
生的	-893
相当	-894
肿么	-895
表情	-896
说话	-897
通过	-898
部门	-899
醒来	-900
▁原来	-901
▁最近	-902
▁突然	-903
▁这是	-904
告诉我	-905
是一个	-906
的就是	-907
这就是	-908
。。。[	-909
TTTTTTTT	-910
18	-911
:[	-912
or	-913
▁《	-914
▁到	-915
▁被	-916
不如	-917
严重	-918
了吗	-919
二十	-920
人员	-921
你妹	-922
你就	-923
公交	-924
决定	-925
几乎	-926
去看	-927
听到	-928
回到	-929
围观	-930
地铁	-931
垃圾	-932
好像	-933
娱乐	-934
帮助	-935
很有	-936
我家	-937
担心	-938
新的	-939
普通	-940
欣赏	-941
童鞋	-942
素质	-943
艺术	-944
要求	-945
解释	-946
都会	-947
TMD	-948
▁难道	-949
中国人	-950
大家的	-951
很开心	-952
...[	-953
哥哥哥哥哥哥哥哥	-954
al	-955
es	-956
hi	-957
▁C	-958
▁。	-959
▁和	-960
▁而	-961
上来	-962
不出	-963
专业	-964
从来	-965
全是	-966
再次	-967
办公	-968
反正	-969
司机	-970
天的	-971
失望	-972
好想	-973
就会	-974
市场	-975
思念	-976
思考	-977
想要	-978
意义	-979
成绩	-980
拿着	-981
时代	-982
时光	-983
激动	-984
状态	-985
目前	-986
移动	-987
这张	-988
000	-989
▁什么	-990
▁最后	-991
▁看着	-992
▁结果	-993
我爱你	-994
我觉得	-995
的孩子	-996
▁亲爱的	-997
▁哈哈哈	-998
▁我喜欢	-999
,[	-1000
▁做	-1001
▁发	-1002
▁多	-1003
▁某	-1004
▁阿	-1005
一段	-1006
不可	-1007
不多	-1008
也太	-1009
了你	-1010
事儿	-1011
利益	-1012
合作	-1013
同志	-1014
和谐	-1015
咖啡	-1016
它们	-1017
害怕	-1018
小的	-1019
尤其	-1020
帅哥	-1021
帮我	-1022
年一	-1023
怎样	-1024
感叹	-1025
慢慢	-1026
我很	-1027
方法	-1028
旅行	-1029
是否	-1030
最好	-1031
消失	-1032
爸爸	-1033
的啊	-1034
网上	-1035
被人	-1036
视频	-1037
郁闷	-1038
酒店	-1039
重庆	-1040
随便	-1041
香港	-1042
骄傲	-1043
▁晚安	-1044
一样的	-1045
到现在	-1046
我喜欢	-1047
是什么	-1048
的东西	-1049
40	-1050
ac	-1051
▁只	-1052
一场	-1053
一大	-1054
一般	-1055
一边	-1056
你会	-1057
你在	-1058
信息	-1059
做了	-1060
农民	-1061
千万	-1062
即将	-1063
另外	-1064
吃惊	-1065
国际	-1066
坐在	-1067
大哭	-1068
安徽	-1069
官员	-1070
就能	-1071
很大	-1072
我和	-1073
改变	-1074
方便	-1075
旁边	-1076
旅游	-1077
演员	-1078
牛逼	-1079
看的	-1080
真心	-1081
站在	-1082
经常	-1083
老婆	-1084
脑子	-1085
表现	-1086
记忆	-1087
记者	-1088
难过	-1089
面的	-1090
▁——	-1091
▁不要	-1092
▁然后	-1093
▁真的	-1094
我自己	-1095
才知道	-1096
▁这就是	-1097
60	-1098
80	-1099
un	-1100
~!	-1101
▁T	-1102
▁快	-1103
下次	-1104
不仅	-1105
也会	-1106
买了	-1107
优秀	-1108
出的	-1109
刚才	-1110
去的	-1111
哪个	-1112
啦啦	-1113
在家	-1114
女生	-1115
宇春	-1116
对我	-1117
导演	-1118
小姐	-1119
就在	-1120
强烈	-1121
律师	-1122
想念	-1123
想想	-1124
意外	-1125
意的	-1126
我爱	-1127
正在	-1128
理由	-1129
的了	-1130
皮鞋	-1131
祖国	-1132
精彩	-1133
网络	-1134
美女	-1135
至少	-1136
解决	-1137
证明	-1138
说你	-1139
说是	-1140
速度	-1141
遇到	-1142
遗憾	-1143
门口	-1144
!![	-1145
▁各位	-1146
▁喜欢	-1147
▁终于	-1148
了一下	-1149
全世界	-1150
办公室	-1151
大家都	-1152
忍不住	-1153
怎么办	-1154
我可以	-1155
有一天	-1156
有什么	-1157
的照片	-1158
第一个	-1159
▁2011	-1160
............	-1161
▁~	-1162
▁李	-1163
▁让	-1164
不上	-1165
个月	-1166
中心	-1167
人们	-1168
人类	-1169
几年	-1170
出门	-1171
又要	-1172
咆哮	-1173
在你	-1174
坏了	-1175
夏天	-1176
奶奶	-1177
弟弟	-1178
性感	-1179
放弃	-1180
有天	-1181
本事	-1182
火车	-1183
珍惜	-1184
的花	-1185
的都	-1186
看得	-1187
联系	-1188
自我	-1189
自由	-1190
许多	-1191
赶紧	-1192
距离	-1193
过程	-1194
连续	-1195
采访	-1196
银行	-1197
难受	-1198
面对	-1199
▁不是	-1200
▁话说	-1201
一定会	-1202
不容易	-1203
出来了	-1204
受不了	-1205
对不起	-1206
我知道	-1207
!!![	-1208
ic	-1209
▁S	-1210
▁去	-1211
▁新	-1212
▁更	-1213
不行	-1214
也好	-1215
也能	-1216
也许	-1217
价值	-1218
你要	-1219
到我	-1220
包括	-1221
十分	-1222
半夜	-1223
反应	-1224
可惜	-1225
外面	-1226
多多	-1227
天下	-1228
实际	-1229
家长	-1230
崩溃	-1231
巴萨	-1232
很久	-1233
得了	-1234
悲伤	-1235
悲催	-1236
报道	-1237
时的	-1238
未来	-1239
淡定	-1240
照顾	-1241
的红	-1242
看来	-1243
签名	-1244
老大	-1245
聊天	-1246
肚子	-1247
能力	-1248
表演	-1249
观众	-1250
运动	-1251
还好	-1252
遇的	-1253
500	-1254
▁只是	-1255
▁晚上	-1256
▁而且	-1257
▁这么	-1258
也不是	-1259
到底是	-1260
有一个	-1261
李宇春	-1262
看到了	-1263
真正的	-1264
▁我觉得	-1265
。。。。。。	-1266
~~~~~~~~~~~~~~~~	-1267
99	-1268
:)	-1269
^^	-1270
is	-1271
lt	-1272
ou	-1273
▁!	-1274
一路	-1275
上最	-1276
不断	-1277
不死	-1278
不见	-1279
不让	-1280
也就	-1281
了好	-1282
似的	-1283
你了	-1284
做出	-1285
允浩	-1286
充满	-1287
免费	-1288
关键	-1289
兴奋	-1290
医生	-1291
十年	-1292
南京	-1293
卧槽	-1294
发光	-1295
发展	-1296
唱歌	-1297
在这	-1298
地球	-1299
女的	-1300
好吃	-1301
少了	-1302
干杯	-1303
当年	-1304
心理	-1305
心痛	-1306
忽然	-1307
态度	-1308
恐怖	-1309
我只	-1310
搞笑	-1311
收获	-1312
文字	-1313
无奈	-1314
既然	-1315
时刻	-1316
明显	-1317
星期	-1318
是你	-1319
是要	-1320
更加	-1321
更新	-1322
本书	-1323
洗个	-1324
深圳	-1325
湖南	-1326
球迷	-1327
用的	-1328
相机	-1329
眼花	-1330
空气	-1331
空间	-1332
紧张	-1333
行为	-1334
认真	-1335
说了	-1336
飞吻	-1337
食品	-1338
鬼脸	-1339
▁期待	-1340
▁那个	-1341
中国的	-1342
今天的	-1343
就这样	-1344
很多人	-1345
是因为	-1346
朋友们	-1347
电视剧	-1348
的样子	-1349
的生活	-1350
神马的	-1351
给大家	-1352
给我的	-1353
▁有木有	-1354
,2	-1355
1.	-1356
14	-1357
DD	-1358
NO	-1359
gh	-1360
▁三	-1361
▁前	-1362
▁哥	-1363
▁能	-1364
一位	-1365
一只	-1366
一生	-1367
下了	-1368
不去	-1369
不着	-1370
中央	-1371
为你	-1372
买的	-1373
亲亲	-1374
人啊	-1375
伤害	-1376
共同	-1377
到的	-1378
半天	-1379
厉害	-1380
发的	-1381
同时	-1382
后悔	-1383
回事	-1384
国内	-1385
在乎	-1386
太有	-1387
完成	-1388
家伙	-1389
尊重	-1390
就好	-1391
左右	-1392
带来	-1393
幸运	-1394
得很	-1395
必要	-1396
忘了	-1397
怀念	-1398
悲剧	-1399
想的	-1400
成长	-1401
房价	-1402
拥有	-1403
是不	-1404
杂志	-1405
来自	-1406
杯具	-1407
某些	-1408
温馨	-1409
满足	-1410
父亲	-1411
特么	-1412
环境	-1413
疯狂	-1414
的歌	-1415
的车	-1416
直播	-1417
真实	-1418
眼神	-1419
眼镜	-1420
第三	-1421
经历	-1422
经济	-1423
缭乱	-1424
老公	-1425
苦逼	-1426
获得	-1427
行业	-1428
警察	-1429
记录	-1430
资格	-1431
这位	-1432
适合	-1433
那样	-1434
都好	-1435
限制	-1436
青春	-1437
首歌	-1438
ing	-1439
~~[	-1440
▁以后	-1441
▁这些	-1442
▁这样	-1443
不喜欢	-1444
个小时	-1445
也没有	-1446
什么的	-1447
会不会	-1448
孩子的	-1449
小时候	-1450
我真的	-1451
没想到	-1452
洗个澡	-1453
的一天	-1454
辛苦了	-1455
▁不知道	-1456
▁有时候	-1457
眼花缭乱	-1458
16	-1459
17	-1460
at	-1461
it	-1462
st	-1463
▁听	-1464
▁用	-1465
一遍	-1466
上一	-1467
之一	-1468
人节	-1469
从未	-1470
兴趣	-1471
动作	-1472
呜呜	-1473
咱们	-1474
哭了	-1475
哼哼	-1476
善良	-1477
回头	-1478
外国	-1479
家庭	-1480
小心	-1481
就没	-1482
岁月	-1483
开了	-1484
形象	-1485
心人	-1486
惊喜	-1487
愉快	-1488
或许	-1489
技术	-1490
折腾	-1491
拍的	-1492
掉了	-1493
接受	-1494
提前	-1495
收拾	-1496
放在	-1497
整天	-1498
无数	-1499
无比	-1500
是谁	-1501
最爱	-1502
月亮	-1503
棒的	-1504
欢迎	-1505
武汉	-1506
毁了	-1507
法院	-1508
活着	-1509
涨了	-1510
演出	-1511
热情	-1512
熟悉	-1513
生气	-1514
男生	-1515
疯了	-1516
的爱	-1517
看过	-1518
知识	-1519
笑了	-1520
老子	-1521
至今	-1522
苹果	-1523
要是	-1524
见过	-1525
资源	-1526
起床	-1527
轻松	-1528
进步	-1529
道德	-1530
错了	-1531
镜头	-1532
长沙	-1533
难以	-1534
项目	-1535
风格	-1536
高清	-1537
one	-1538
▁你妹	-1539
▁刚刚	-1540
▁嘿嘿	-1541
▁心情	-1542
▁我就	-1543
▁我很	-1544
▁我爱	-1545
▁看来	-1546
也不能	-1547
公交车	-1548
别人的	-1549
怎么样	-1550
感叹号	-1551
我已经	-1552
是我的	-1553
最大的	-1554
有时候	-1555
母亲节	-1556
涨价了	-1557
的一切	-1558
而不是	-1559
起来了	-1560
什么时候	-1561
爱心发光	-1562
。。。。。	-1563
眼花缭乱眼花缭乱	-1564
!!!!!!!!!	-1565
。。。。。。。。。。。。。。。。	-1566
HI	-1567
HO	-1568
▁总	-1569
▁愿	-1570
▁靠	-1571
一块	-1572
上去	-1573
上网	-1574
下雨	-1575
专家	-1576
之间	-1577
了点	-1578
事实	-1579
亲们	-1580
介绍	-1581
会在	-1582
似乎	-1583
但我	-1584
作业	-1585
假期	-1586
做得	-1587
偶像	-1588
偷偷	-1589
傻逼	-1590
内心	-1591
力的	-1592
办法	-1593
参与	-1594
叫我	-1595
台湾	-1596
同样	-1597
后的	-1598
回去	-1599
地沟	-1600
她们	-1601
始终	-1602
姐妹	-1603
嫉妒	-1604
子里	-1605
学会	-1606
小孩	-1607
岁的	-1608
希澈	-1609
庆幸	-1610
微风	-1611
性的	-1612
感慨	-1613
我好	-1614
我心	-1615
把你	-1616
抛弃	-1617
拍照	-1618
摄影	-1619
新浪	-1620
无语	-1621
春节	-1622
有关	-1623
校园	-1624
水平	-1625
注定	-1626
浪费	-1627
消费	-1628
点的	-1629
爸妈	-1630
用户	-1631
留下	-1632
留言	-1633
的手	-1634
的路	-1635
的黑	-1636
看我	-1637
神奇	-1638
算是	-1639
聪明	-1640
脑残	-1641
表达	-1642
解放	-1643
貌似	-1644
起了	-1645
路人	-1646
造型	-1647
遇见	-1648
那叫	-1649
钱的	-1650
难得	-1651
韩国	-1652
马路	-1653
高中	-1654
▁北京	-1655
▁各种	-1656
▁感觉	-1657
▁新年	-1658
▁本来	-1659
一会儿	-1660
不明白	-1661
也不会	-1662
什么都	-1663
他妈的	-1664
另一个	-1665
地沟油	-1666
完美的	-1667
就这么	-1668
怎么了	-1669
最好的	-1670
现在的	-1671
的一个	-1672
的一年	-1673
的心情	-1674
给你们	-1675
过去了	-1676
▁中国的	-1677
年一遇的	-1678
~~~~~	-1679
▁5555	-1680
......[	-1681
▁哈哈哈哈哈哈	-1682
恨死我了恨死我了恨死我了恨死我了	-1683
)。	-1684
88	-1685
TV	-1686
VO	-1687
ai	-1688
▁五	-1689
▁打	-1690
▁来	-1691
▁金	-1692
上课	-1693
不停	-1694
不够	-1695
中间	-1696
为何	-1697
事业	-1698
事件	-1699
人人	-1700
价格	-1701
位置	-1702
体验	-1703
你妈	-1704
使用	-1705
全球	-1706
再见	-1707
几张	-1708
利用	-1709
加班	-1710
动物	-1711
单位	-1712
同意	-1713
否则	-1714
吸引	-1715
味的	-1716
圆满	-1717
处理	-1718
天空	-1719
奇怪	-1720
婚礼	-1721
安慰	-1722
安静	-1723
实现	-1724
尽管	-1725
广播	-1726
床上	-1727
应援	-1728
建设	-1729
强壮	-1730
形容	-1731
得好	-1732
怀疑	-1733
恋爱	-1734
您的	-1735
情感	-1736
想说	-1737
感恩	-1738
我又	-1739
我对	-1740
找个	-1741
承认	-1742
接到	-1743
收藏	-1744
更好	-1745
最高	-1746
有爱	-1747
杰伦	-1748
此时	-1749
沉默	-1750
没了	-1751
没事	-1752
泪奔	-1753
洗澡	-1754
用来	-1755
男女	-1756
画面	-1757
的钱	-1758
科学	-1759
穿越	-1760
管理	-1761
累了	-1762
结局	-1763
网友	-1764
考虑	-1765
脑袋	-1766
腐败	-1767
花痴	-1768
英语	-1769
英雄	-1770
被我	-1771
观点	-1772
超市	-1773
过节	-1774
那一	-1775
阿姨	-1776
附近	-1777
陪伴	-1778
震惊	-1779
馋嘴	-1780
麻烦	-1781
麻麻	-1782
▁一定	-1783
▁下午	-1784
▁分享	-1785
▁刚才	-1786
▁明明	-1787
▁昨晚	-1788
▁有些	-1789
了很多	-1790
唯一的	-1791
在北京	-1792
在这里	-1793
小朋友	-1794
我现在	-1795
我相信	-1796
找不到	-1797
把自己	-1798
最后一	-1799
最喜欢	-1800
的城市	-1801
的那个	-1802
看不到	-1803
那么的	-1804
hone	-1805
▁我真的	-1806
▁这样的	-1807
工作人员	-1808
这个世界	-1809
都不知道	-1810
▁哈哈哈哈	-1811
好烦好烦好烦好烦好烦好烦好烦好烦	-1812
90	-1813
AN	-1814
``	-1815
ap	-1816
ay	-1817
ch	-1818
ed	-1819
go	-1820
▁:	-1821
▁两	-1822
▁俺	-1823
▁出	-1824
▁比	-1825
一件	-1826
一周	-1827
一把	-1828
一群	-1829
上午	-1830
上学	-1831
丢了	-1832
中华	-1833
为啥	-1834
为我	-1835
主人	-1836
主持	-1837
亮点	-1838
人说	-1839
付出	-1840
以堪	-1841
何时	-1842
你去	-1843
你好	-1844
你有	-1845
便宜	-1846
偶尔	-1847
其中	-1848
具有	-1849
冠军	-1850
刺激	-1851
卫生	-1852
去吧	-1853
去年	-1854
发了	-1855
发布	-1856
名的	-1857
品牌	-1858
哪怕	-1859
在中	-1860
型的	-1861
培养	-1862
失去	-1863
头发	-1864
女性	-1865
子了	-1866
定的	-1867
客服	-1868
宿舍	-1869
导致	-1870
少年	-1871
干净	-1872
平时	-1873
强大	-1874
当初	-1875
很想	-1876
情绪	-1877
惊哭	-1878
惊恐	-1879
想吃	-1880
想象	-1881
我去	-1882
我看	-1883
批评	-1884
拍摄	-1885
排队	-1886
支付	-1887
教授	-1888
星光	-1889
是很	-1890
最终	-1891
月的	-1892
权力	-1893
正式	-1894
毫无	-1895
气质	-1896
汽车	-1897
泪水	-1898
活活	-1899
浮云	-1900
火锅	-1901
特色	-1902
百度	-1903
眼前	-1904
睡了	-1905
究竟	-1906
穿着	-1907
笑容	-1908
算了	-1909
精英	-1910
组织	-1911
绝望	-1912
维护	-1913
聚会	-1914
至于	-1915
被打	-1916
计划	-1917
诅咒	-1918
走过	-1919
起码	-1920
身份	-1921
还得	-1922
进去	-1923
进行	-1924
重点	-1925
问我	-1926
震撼	-1927
青年	-1928
顺便	-1929
鸡蛋	-1930
▁一直	-1931
▁为了	-1932
▁为毛	-1933
▁可惜	-1934
一辈子	-1935
伟大的	-1936
何以堪	-1937
你可以	-1938
做鬼脸	-1939
十分钟	-1940
实在是	-1941
对我的	-1942
幸福的	-1943
是我们	-1944
每天都	-1945
男朋友	-1946
的味道	-1947
美丽的	-1948
舍不得	-1949
说什么	-1950
NOVO	-1951
SSSS	-1952
六一快乐	-1953
希望大家	-1954
????????????????	-1955
21	-1956
24	-1957
:1	-1958
CC	-1959
MV	-1960
ag	-1961
ok	-1962
ow	-1963
▁B	-1964
▁G	-1965
▁O	-1966
▁二	-1967
▁心	-1968
▁求	-1969
▁自	-1970
》《	-1971
一人	-1972
一声	-1973
一百	-1974
一笑	-1975
三十	-1976
下一	-1977
不在	-1978
不爽	-1979
不给	-1980
专辑	-1981
中枪	-1982
为止	-1983
主义	-1984
久没	-1985
了两	-1986
云南	-1987
们的	-1988
任务	-1989
体现	-1990
信任	-1991
冰冰	-1992
几次	-1993
分手	-1994
创意	-1995
创造	-1996
到处	-1997
制作	-1998
十二	-1999
却是	-2000
去吃	-2001
变态	-2002
台上	-2003
吃完	-2004
吃着	-2005
呼吸	-2006
哪儿	-2007
土地	-2008
多年	-2009
大哥	-2010
大早	-2011
天津	-2012
太好	-2013
失眠	-2014
奋斗	-2015
好玩	-2016
家鑫	-2017
对方	-2018
对象	-2019
帅气	-2020
年代	-2021
并不	-2022
度过	-2023
开放	-2024
开车	-2025
影子	-2026
心了	-2027
恢复	-2028
意识	-2029
愿望	-2030
懒得	-2031
成熟	-2032
我有	-2033
我真	-2034
房间	-2035
才会	-2036
拒绝	-2037
改革	-2038
放假	-2039
数学	-2040
无敌	-2041
早已	-2042
时尚	-2043
星星	-2044
本人	-2045
来个	-2046
梦里	-2047
此刻	-2048
死的	-2049
泰国	-2050
灿烂	-2051
点半	-2052
牵着	-2053
球队	-2054
生产	-2055
用心	-2056
电信	-2057
电池	-2058
的出	-2059
盆友	-2060
目标	-2061
看完	-2062
真相	-2063
着的	-2064
礼花	-2065
神经	-2066
私信	-2067
程度	-2068
笑的	-2069
等等	-2070
米兰	-2071
经过	-2072
缺乏	-2073
老了	-2074
老人	-2075
老爸	-2076
者的	-2077
职业	-2078
腾讯	-2079
花了	-2080
花园	-2081
英文	-2082
行的	-2083
让他	-2084
记住	-2085
评论	-2086
购物	-2087
身材	-2088
通知	-2089
道理	-2090
错过	-2091
长的	-2092
青岛	-2093
食物	-2094
▁上海	-2095
▁不知	-2096
▁另外	-2097
▁可怜	-2098
▁好吧	-2099
▁妈的	-2100
▁宝贝	-2101
▁早安	-2102
▁看了	-2103
▁真心	-2104
▁这种	-2105
也可以	-2106
你怎么	-2107
变成了	-2108
回来了	-2109
就开始	-2110
就知道	-2111
就算了	-2112
很喜欢	-2113
总是在	-2114
我就敢	-2115
我希望	-2116
我讨厌	-2117
所有人	-2118
是一种	-2119
是如此	-2120
现实的	-2121
的原因	-2122
看起来	-2123
祝大家	-2124
离开了	-2125
给力的	-2126
药家鑫	-2127
这句话	-2128
都可以	-2129
▁是不是	-2130
情何以堪	-2131
▁分享图片	-2132
,《	-2133
LO	-2134
QQ	-2135
SB	-2136
]@	-2137
ad	-2138
re	-2139
ri	-2140
ro	-2141
tm	-2142
▁4	-2143
▁7	-2144
▁J	-2145
▁N	-2146
▁下	-2147
▁东	-2148
▁回	-2149
▁把	-2150
▁据	-2151
▁操	-2152
▁本	-2153
▁每	-2154
▁给	-2155
▁美	-2156
▁过	-2157
▁连	-2158
一堆	-2159
一家	-2160
上访	-2161
不动	-2162
不然	-2163
两年	-2164
乖乖	-2165
会儿	-2166
你家	-2167
信号	-2168
做到	-2169
允许	-2170
全体	-2171
全场	-2172
关于	-2173
冬天	-2174
减肥	-2175
别的	-2176
制度	-2177
勇敢	-2178
包装	-2179
半年	-2180
华丽	-2181
却又	-2182
反而	-2183
取消	-2184
变得	-2185
吃不	-2186
合适	-2187
同情	-2188
同胞	-2189
听说	-2190
呀呀	-2191
员工	-2192
国外	-2193
在大	-2194
夜晚	-2195
够了	-2196
大声	-2197
大量	-2198
天使	-2199
失落	-2200
女子	-2201
好人	-2202
好几	-2203
如同	-2204
妹妹	-2205
官方	-2206
小小	-2207
干部	-2208
庆祝	-2209
很不	-2210
微薄	-2211
德国	-2212
忽悠	-2213
总会	-2214
惊讶	-2215
想法	-2216
愤怒	-2217
懂得	-2218
我能	-2219
我连	-2220
折磨	-2221
抵消	-2222
拍了	-2223
持续	-2224
挣扎	-2225
提醒	-2226
政治	-2227
政策	-2228
新人	-2229
方面	-2230
日的	-2231
春天	-2232
是对	-2233
晚会	-2234
更有	-2235
最多	-2236
月去	-2237
有了	-2238
有钱	-2239
来到	-2240
杭州	-2241
民主	-2242
民众	-2243
法国	-2244
泥马	-2245
注册	-2246
深深	-2247
热闹	-2248
爱上	-2249
爱我	-2250
狗狗	-2251
狠狠	-2252
玩意	-2253
环保	-2254
理你	-2255
男的	-2256
的很	-2257
的水	-2258
的相	-2259
睡着	-2260
祈福	-2261
等我	-2262
等着	-2263
答应	-2264
系统	-2265
细节	-2266
网站	-2267
美美	-2268
脖子	-2269
良心	-2270
行李	-2271
裤子	-2272
要么	-2273
语言	-2274
质量	-2275
走进	-2276
足球	-2277
还会	-2278
送给	-2279
道歉	-2280
错误	-2281
随时	-2282
骗子	-2283
高的	-2284
麻痹	-2285
～[	-2286
,,,	-2287
TAT	-2288
▁一切	-2289
▁于是	-2290
▁你的	-2291
▁可以	-2292
▁后来	-2293
▁回家	-2294
▁好想	-2295
▁就是	-2296
▁我又	-2297
▁无论	-2298
▁日本	-2299
▁早上	-2300
▁每次	-2301
▁那么	-2302
一个月	-2303
下来的	-2304
不要再	-2305
不要脸	-2306
不错的	-2307
不需要	-2308
主持人	-2309
你知道	-2310
儿童节	-2311
公司的	-2312
可以去	-2313
好心人	-2314
带来的	-2315
微博的	-2316
我一直	-2317
我的心	-2318
我还是	-2319
所谓的	-2320
才发现	-2321
挺好的	-2322
敢不敢	-2323
朴有天	-2324
每一天	-2325
没什么	-2326
温暖的	-2327
电视台	-2328
的人生	-2329
的声音	-2330
的女人	-2331
的那些	-2332
睡不着	-2333
郑允浩	-2334
都知道	-2335
韩庚的	-2336
▁一大早	-2337
▁我知道	-2338
一个人的	-2339
世界上最	-2340
中秋快乐	-2341
谢谢你们	-2342
▁2010	-2343
▁~~~[	-2344
啊啊啊啊啊	-2345
.......	-2346
啊啊啊啊啊啊啊	-2347
!!!!!!!!!!!!!	-2348
哥哥哥哥哥哥哥哥哥哥哥哥哥哥哥哥	-2349
);	-2350
,3	-2351
.0	-2352
22	-2353
IF	-2354
IP	-2355
OS	-2356
ie	-2357
ty	-2358
ve	-2359
▁y	-2360
▁先	-2361
▁原	-2362
▁四	-2363
▁此	-2364
一份	-2365
一半	-2366
一片	-2367
一部	-2368
万元	-2369
上帝	-2370
不止	-2371
不该	-2372
丢人	-2373
主角	-2374
了么	-2375
今日	-2376
从此	-2377
他在	-2378
以来	-2379
体制	-2380
体育	-2381
保佑	-2382
信仰	-2383
兔年	-2384
公布	-2385
前天	-2386
加上	-2387
动了	-2388
化妆	-2389
单身	-2390
印象	-2391
危险	-2392
厕所	-2393
去过	-2394
反对	-2395
各地	-2396
合照	-2397
向日	-2398
吓死	-2399
听了	-2400
听着	-2401
周笔	-2402
哭泣	-2403
团结	-2404
国安	-2405
国民	-2406
在为	-2407
在地	-2408
堵车	-2409
增加	-2410
外婆	-2411
大叔	-2412
天啊	-2413
天堂	-2414
太太	-2415
头的	-2416
好友	-2417
婚纱	-2418
对了	-2419
小学	-2420
就有	-2421
就行	-2422
就说	-2423
山寨	-2424
市民	-2425
并且	-2426
开发	-2427
张嘴	-2428
当成	-2429
彼此	-2430
志祥	-2431
忙碌	-2432
怒吼	-2433
悲哀	-2434
惊艳	-2435
想过	-2436
意味	-2437
我却	-2438
我可	-2439
我妈	-2440
我那	-2441
承担	-2442
拆迁	-2443
拼命	-2444
提供	-2445
握手	-2446
搭配	-2447
收费	-2448
故意	-2449
无人	-2450
早安	-2451
早日	-2452
是有	-2453
晚饭	-2454
晟敏	-2455
智商	-2456
最初	-2457
来得	-2458
楼下	-2459
模特	-2460
欺骗	-2461
正好	-2462
残忍	-2463
活了	-2464
流氓	-2465
深刻	-2466
满意	-2467
满面	-2468
激情	-2469
然而	-2470
爱了	-2471
爷爷	-2472
物价	-2473
的吧	-2474
的太	-2475
的美	-2476
看不	-2477
看你	-2478
研究	-2479
祝贺	-2480
系列	-2481
纪念	-2482
维尼	-2483
翻译	-2484
而言	-2485
能在	-2486
自信	-2487
致敬	-2488
舔下	-2489
芒果	-2490
要吃	-2491
角落	-2492
话筒	-2493
读书	-2494
跟你	-2495
身后	-2496
过年	-2497
迎接	-2498
进入	-2499
造成	-2500
那是	-2501
面条	-2502
风景	-2503
高跟	-2504
魅力	-2505
SHI	-2506
and	-2507
▁你是	-2508
▁只要	-2509
▁妈妈	-2510
▁对于	-2511
▁我会	-2512
▁我真	-2513
▁我靠	-2514
▁既然	-2515
▁杯具	-2516
▁这次	-2517
▁都是	-2518
▁非常	-2519
不会再	-2520
不开心	-2521
又一次	-2522
只不过	-2523
向日葵	-2524
周笔畅	-2525
姐妹们	-2526
对自己	-2527
尤其是	-2528
应该是	-2529
想起来	-2530
我不是	-2531
我今天	-2532
我们要	-2533
是为了	-2534
更多的	-2535
最美的	-2536
最重要	-2537
有很多	-2538
的情况	-2539
看电影	-2540
童鞋们	-2541
结束了	-2542
给力了	-2543
能不能	-2544
设计师	-2545
还可以	-2546
这几天	-2547
XXXX	-2548
▁你妹的	-2549
啊有木有	-2550
舔下皮鞋	-2551
身体健康	-2552
▁生日快乐	-2553
母亲节快乐	-2554
!!!!!!!!!!	-2555
)[	-2556
)、	-2557
25	-2558
AR	-2559
IN	-2560
MP	-2561
ND	-2562
ON	-2563
TI	-2564
^_	-2565
as	-2566
be	-2567
ec	-2568
ia	-2569
od	-2570
┭┮	-2571
▁&	-2572
▁5	-2573
▁6	-2574
▁H	-2575
▁K	-2576
▁L	-2577
▁m	-2578
▁s	-2579
▁万	-2580
▁中	-2581
▁买	-2582
▁哈	-2583
▁明	-2584
▁的	-2585
▁草	-2586
▁高	-2587
一台	-2588
一顿	-2589
三天	-2590
上面	-2591
下面	-2592
不变	-2593
不少	-2594
不已	-2595
不怕	-2596
不打	-2597
不舍	-2598
不顾	-2599
两会	-2600
丰富	-2601
主动	-2602
之外	-2603
了呢	-2604
二奶	-2605
交流	-2606
人气	-2607
人肉	-2608
仿佛	-2609
传统	-2610
低调	-2611
体会	-2612
体的	-2613
作家	-2614
你也	-2615
你这	-2616
俄罗	-2617
俊秀	-2618
做好	-2619
做饭	-2620
偶吧	-2621
全家	-2622
公共	-2623
公平	-2624
关门	-2625
内容	-2626
农村	-2627
冲动	-2628
凌晨	-2629
出发	-2630
到位	-2631
前面	-2632
劳资	-2633
十一	-2634
十几	-2635
博友	-2636
发挥	-2637
叫做	-2638
吃过	-2639
合影	-2640
命运	-2641
哥们	-2642
困难	-2643
在哪	-2644
在此	-2645
块钱	-2646
城管	-2647
处于	-2648
复杂	-2649
多好	-2650
大陆	-2651
头上	-2652
头像	-2653
好呢	-2654
孙子	-2655
季节	-2656
守护	-2657
完整	-2658
客人	-2659
就别	-2660
就被	-2661
尽头	-2662
尽的	-2663
差点	-2664
师傅	-2665
年后	-2666
幸好	-2667
建筑	-2668
开口	-2669
强拆	-2670
当地	-2671
往往	-2672
很快	-2673
很累	-2674
得不	-2675
得太	-2676
得我	-2677
心酸	-2678
快的	-2679
思想	-2680
想去	-2681
成都	-2682
我从	-2683
我最	-2684
我说	-2685
手术	-2686
打动	-2687
打死	-2688
投诉	-2689
抱着	-2690
拿到	-2691
指甲	-2692
控制	-2693
提高	-2694
收入	-2695
放心	-2696
教师	-2697
数据	-2698
文章	-2699
早晨	-2700
昌珉	-2701
是被	-2702
晚餐	-2703
月份	-2704
有所	-2705
期间	-2706
杀人	-2707
条件	-2708
森纳	-2709
残疾	-2710
氛围	-2711
沉重	-2712
没能	-2713
流浪	-2714
浑身	-2715
浪漫	-2716
淘宝	-2717
温柔	-2718
点点	-2719
片子	-2720
牛肉	-2721
玩笑	-2722
现象	-2723
生死	-2724
用了	-2725
男友	-2726
病人	-2727
百万	-2728
的主	-2729
的你	-2730
的双	-2731
的喜	-2732
的图	-2733
的多	-2734
目的	-2735
直到	-2736
相处	-2737
真诚	-2738
神起	-2739
福利	-2740
离去	-2741
积极	-2742
立刻	-2743
立马	-2744
等到	-2745
终究	-2746
给她	-2747
统统	-2748
统计	-2749
美了	-2750
老家	-2751
耳朵	-2752
胜利	-2753
脸上	-2754
街上	-2755
裙子	-2756
角色	-2757
评价	-2758
诗人	-2759
话的	-2760
请问	-2761
调查	-2762
负责	-2763
贡献	-2764
走到	-2765
赶快	-2766
身高	-2767
软件	-2768
还真	-2769
这边	-2770
进球	-2771
远的	-2772
追求	-2773
逛街	-2774
都被	-2775
酒吧	-2776
重复	-2777
长了	-2778
长大	-2779
陪我	-2780
非要	-2781
靠谱	-2782
面子	-2783
顿时	-2784
首先	-2785
首都	-2786
骨头	-2787
鼓励	-2788
▁//	-2789
▁不管	-2790
▁也许	-2791
▁今年	-2792
▁今日	-2793
▁以前	-2794
▁作为	-2795
▁恭喜	-2796
▁我家	-2797
▁每天	-2798
▁第一	-2799
▁简直	-2800
▁超级	-2801
▁那些	-2802
。。[	-2803
不得不	-2804
俄罗斯	-2805
凭什么	-2806
千万别	-2807
发短信	-2808
同学们	-2809
同志们	-2810
喜欢你	-2811
因为我	-2812
国家的	-2813
在家里	-2814
在这个	-2815
大学生	-2816
好开心	-2817
好消息	-2818
妇女节	-2819
就好了	-2820
就是个	-2821
很不错	-2822
很大的	-2823
很给力	-2824
怎么看	-2825
成这样	-2826
我发现	-2827
找到了	-2828
无所谓	-2829
是多么	-2830
是怎么	-2831
未来的	-2832
每个人	-2833
生命的	-2834
的不是	-2835
的微博	-2836
的时间	-2837
的机会	-2838
的问题	-2839
真的好	-2840
要不要	-2841
觉得我	-2842
让大家	-2843
让自己	-2844
跟我说	-2845
身边的	-2846
高跟鞋	-2847
————	-2848
▁今天是	-2849
▁我爱你	-2850
▁祝大家	-2851
嗷嗷嗷嗷	-2852
湖南卫视	-2853
羡慕嫉妒	-2854
▁我想我可以	-2855
········	-2856
哈哈哈哈哈哈哈哈	-2857
.........	-2858
!?	-2859
",	-2860
)/	-2861
-_	-2862
19	-2863
35	-2864
4,	-2865
gt	-2866
ho	-2867
id	-2868
ip	-2869
os	-2870
ox	-2871
ps	-2872
th	-2873
▁A	-2874
▁c	-2875
▁亲	-2876
▁接	-2877
▁气	-2878
▁笑	-2879
▁考	-2880
▁越	-2881
▁跟	-2882
▁黄	-2883
一口	-2884
一夜	-2885
一旦	-2886
一本	-2887
一眼	-2888
丈夫	-2889
三分	-2890
上映	-2891
上次	-2892
上涨	-2893
不及	-2894
不求	-2895
不爱	-2896
与你	-2897
东方	-2898
两位	-2899
两次	-2900
个大	-2901
为此	-2902
主席	-2903
丽江	-2904
久了	-2905
了解	-2906
事故	-2907
人性	-2908
今夜	-2909
仍然	-2910
他会	-2911
他是	-2912
件事	-2913
传奇	-2914
伤感	-2915
你丫	-2916
你没	-2917
你还	-2918
佩服	-2919
保证	-2920
保险	-2921
信用	-2922
倒霉	-2923
偏偏	-2924
八卦	-2925
公开	-2926
决赛	-2927
出差	-2928
剩下	-2929
务员	-2930
北大	-2931
北鼻	-2932
十字	-2933
原谅	-2934
厦门	-2935
只会	-2936
号码	-2937
吵架	-2938
周六	-2939
呼吁	-2940
商业	-2941
嘉宾	-2942
嘤嘤	-2943
回应	-2944
回答	-2945
因此	-2946
地下	-2947
地的	-2948
场面	-2949
墓地	-2950
复古	-2951
外的	-2952
多人	-2953
夜里	-2954
大众	-2955
大图	-2956
大大	-2957
央视	-2958
女王	-2959
好事	-2960
好听	-2961
委员	-2962
婴儿	-2963
媳妇	-2964
学院	-2965
宁愿	-2966
安排	-2967
定了	-2968
实话	-2969
宾馆	-2970
寒冷	-2971
对你	-2972
寻找	-2973
射门	-2974
将来	-2975
小说	-2976
尽量	-2977
屁股	-2978
屏幕	-2979
帮忙	-2980
平静	-2981
年纪	-2982
开着	-2983
影片	-2984
影视	-2985
很美	-2986
很难	-2987
得瑟	-2988
得起	-2989
心底	-2990
忧伤	-2991
快递	-2992
怒骂	-2993
思维	-2994
恶的	-2995
惨了	-2996
感人	-2997
懂的	-2998
成本	-2999
我啊	-3000
我没	-3001
截图	-3002
房东	-3003
手套	-3004
打了	-3005
打哈	-3006
找我	-3007
投入	-3008
抱歉	-3009
拜托	-3010
推特	-3011
提出	-3012
搞得	-3013
收视	-3014
改为	-3015
改委	-3016
放下	-3017
教材	-3018
数字	-3019
整理	-3020
方向	-3021
方案	-3022
无所	-3023
日报	-3024
早就	-3025
是吧	-3026
显示	-3027
智慧	-3028
暖暖	-3029
有你	-3030
机了	-3031
权利	-3032
极其	-3033
某个	-3034
梅西	-3035
梦到	-3036
欺负	-3037
歌声	-3038
歌迷	-3039
死人	-3040
每年	-3041
江苏	-3042
沐浴	-3043
海南	-3044
清早	-3045
清晰	-3046
演技	-3047
潇洒	-3048
点球	-3049
点评	-3050
爷们	-3051
狗屁	-3052
现代	-3053
珍贵	-3054
理想	-3055
由于	-3056
男孩	-3057
痛心	-3058
白云	-3059
白天	-3060
白痴	-3061
百年	-3062
的也	-3063
的光	-3064
的在	-3065
的女	-3066
的就	-3067
的有	-3068
相比	-3069
碰到	-3070
科技	-3071
秘密	-3072
穿上	-3073
第四	-3074
类的	-3075
纳税	-3076
经典	-3077
经理	-3078
群众	-3079
老天	-3080
耳光	-3081
联播	-3082
联通	-3083
能把	-3084
脾气	-3085
自动	-3086
自杀	-3087
自称	-3088
色彩	-3089
花花	-3090
范围	-3091
草莓	-3092
行动	-3093
西安	-3094
角度	-3095
讨论	-3096
论坛	-3097
说不	-3098
说明	-3099
说这	-3100
谁谁	-3101
资料	-3102
赚钱	-3103
路边	-3104
路过	-3105
车子	-3106
轻轻	-3107
辐射	-3108
达到	-3109
这条	-3110
这部	-3111
逻辑	-3112
遗忘	-3113
那就	-3114
那边	-3115
部长	-3116
酸奶	-3117
铅笔	-3118
闪电	-3119
陌生	-3120
陪你	-3121
鞋子	-3122
预祝	-3123
鸭梨	-3124
---	-3125
-_-	-3126
600	-3127
ter	-3128
▁人家	-3129
▁卧槽	-3130
▁反正	-3131
▁坑爹	-3132
▁如今	-3133
▁居然	-3134
▁我一	-3135
▁特别	-3136
▁老子	-3137
▁老师	-3138
▁自己	-3139
一起去	-3140
不会被	-3141
不再是	-3142
不小心	-3143
不就是	-3144
不起啊	-3145
于是我	-3146
今天是	-3147
你妹的	-3148
信用卡	-3149
几个人	-3150
加油吧	-3151
可怜的	-3152
可能是	-3153
同样的	-3154
告诉你	-3155
和家人	-3156
在中国	-3157
在心里	-3158
好日子	-3159
好起来	-3160
小小的	-3161
就不能	-3162
差不多	-3163
已经是	-3164
年轻人	-3165
很好的	-3166
感冒了	-3167
感受到	-3168
我们是	-3169
我怎么	-3170
我总是	-3171
我的爱	-3172
是我最	-3173
是用来	-3174
有些人	-3175
有多少	-3176
有本事	-3177
有机会	-3178
段时间	-3179
永远的	-3180
的人们	-3181
的学生	-3182
的小孩	-3183
的故事	-3184
的方式	-3185
真的太	-3186
第一天	-3187
简单的	-3188
给自己	-3189
罗志祥	-3190
范冰冰	-3191
让你们	-3192
过去的	-3193
还是要	-3194
这辈子	-3195
金在中	-3196
长大了	-3197
默默地	-3198
1000	-3199
2012	-3200
high	-3201
▁110	-3202
▁一个人	-3203
▁我们的	-3204
▁我们都	-3205
▁这不是	-3206
不好意思	-3207
为什么要	-3208
懒得理你	-3209
我不知道	-3210
突然觉得	-3211
这个时候	-3212
▁谢谢你们	-3213
55555555	-3214
TTTTTTTTTTTTTTTT	-3215
.1	-3216
.5	-3217
3:	-3218
70	-3219
AY	-3220
EL	-3221
NB	-3222
PP	-3223
TO	-3224
YJ	-3225
\(	-3226
]!	-3227
ca	-3228
ee	-3229
em	-3230
py	-3231
sb	-3232
zz	-3233
▁0	-3234
▁D	-3235
▁F	-3236
▁I	-3237
▁b	-3238
▁全	-3239
▁却	-3240
▁咱	-3241
▁如	-3242
▁学	-3243
▁家	-3244
▁开	-3245
▁张	-3246
▁昨	-3247
▁死	-3248
▁玩	-3249
▁神	-3250
▁红	-3251
▁若	-3252
▁超	-3253
▁送	-3254
▁马	-3255
一刻	-3256
一同	-3257
一对	-3258
一无	-3259
一早	-3260
一步	-3261
一脸	-3262
一觉	-3263
一道	-3264
万达	-3265
下个	-3266
不为	-3267
不但	-3268
不完	-3269
不清	-3270
不禁	-3271
不足	-3272
中医	-3273
中文	-3274
义务	-3275
之下	-3276
之处	-3277
也得	-3278
也挺	-3279
了下	-3280
了他	-3281
了还	-3282
争取	-3283
互相	-3284
亚洲	-3285
亲人	-3286
亲切	-3287
人不	-3288
人都	-3289
仅仅	-3290
从前	-3291
他说	-3292
代价	-3293
代言	-3294
以上	-3295
休闲	-3296
会的	-3297
会被	-3298
传说	-3299
但却	-3300
作文	-3301
作用	-3302
你啊	-3303
你敢	-3304
倒是	-3305
偶们	-3306
傻笑	-3307
像我	-3308
充实	-3309
全面	-3310
公民	-3311
其它	-3312
再说	-3313
分了	-3314
分析	-3315
到达	-3316
办事	-3317
功能	-3318
加坡	-3319
动车	-3320
劳动	-3321
即便	-3322
厨房	-3323
又不	-3324
又被	-3325
友情	-3326
反复	-3327
发个	-3328
发泄	-3329
受伤	-3330
口感	-3331
可笑	-3332
号线	-3333
吃到	-3334
吃喝	-3335
吃饱	-3336
名单	-3337
吵闹	-3338
周日	-3339
咬手	-3340
咳嗽	-3341
啧啧	-3342
喝酒	-3343
噩梦	-3344
四年	-3345
图书	-3346
在人	-3347
在意	-3348
坐着	-3349
外星	-3350
多久	-3351
多的	-3352
大一	-3353
大头	-3354
大好	-3355
大概	-3356
天上	-3357
天涯	-3358
套餐	-3359
奶茶	-3360
好吧	-3361
好奇	-3362
好运	-3363
子和	-3364
孤单	-3365
孤独	-3366
孩纸	-3367
就该	-3368
尽力	-3369
尽快	-3370
工程	-3371
师兄	-3372
常常	-3373
平等	-3374
年年	-3375
年龄	-3376
弥陀	-3377
很是	-3378
得知	-3379
心灵	-3380
快到	-3381
快快	-3382
快点	-3383
总理	-3384
感了	-3385
戏剧	-3386
成就	-3387
我把	-3388
我更	-3389
我滴	-3390
战争	-3391
手续	-3392
打架	-3393
打算	-3394
抓住	-3395
投资	-3396
抬头	-3397
抱抱	-3398
拍戏	-3399
挑战	-3400
播放	-3401
救助	-3402
救援	-3403
教室	-3404
整体	-3405
无关	-3406
无力	-3407
无穷	-3408
无限	-3409
时期	-3410
昆明	-3411
暂时	-3412
最新	-3413
有时	-3414
权贵	-3415
来临	-3416
来电	-3417
某人	-3418
标准	-3419
棒了	-3420
正义	-3421
武器	-3422
死亡	-3423
比如	-3424
毕竟	-3425
汽油	-3426
没用	-3427
油菜	-3428
治疗	-3429
洗完	-3430
海报	-3431
淡淡	-3432
渐渐	-3433
渴望	-3434
游泳	-3435
演的	-3436
火的	-3437
灵魂	-3438
热爱	-3439
爱国	-3440
爱豆	-3441
物质	-3442
猥琐	-3443
玉米	-3444
生态	-3445
用品	-3446
申请	-3447
电梯	-3448
界的	-3449
疼痛	-3450
瘦肉	-3451
白发	-3452
的亲	-3453
的吗	-3454
的命	-3455
的对	-3456
的确	-3457
的笑	-3458
的要	-3459
的高	-3460
皱纹	-3461
相关	-3462
看这	-3463
睡前	-3464
礼拜	-3465
祝你	-3466
祝愿	-3467
等你	-3468
类似	-3469
素颜	-3470
级的	-3471
纯净	-3472
经营	-3473
经验	-3474
绑架	-3475
给了	-3476
综合	-3477
编辑	-3478
罚款	-3479
美味	-3480
群体	-3481
考了	-3482
股份	-3483
脆弱	-3484
自私	-3485
自行	-3486
舌头	-3487
航班	-3488
范儿	-3489
莫非	-3490
菊花	-3491
葡萄	-3492
蛋疼	-3493
裁判	-3494
规则	-3495
语文	-3496
说法	-3497
请你	-3498
谎言	-3499
豆腐	-3500
贪污	-3501
资本	-3502
走出	-3503
走好	-3504
走路	-3505
超过	-3506
足以	-3507
足够	-3508
踏实	-3509
躺在	-3510
边的	-3511
过得	-3512
这帮	-3513
这点	-3514
进了	-3515
那天	-3516
都去	-3517
都想	-3518
金属	-3519
销售	-3520
长期	-3521
问候	-3522
问问	-3523
闷了	-3524
闺女	-3525
降低	-3526
难怪	-3527
集体	-3528
静的	-3529
面包	-3530
革命	-3531
鞠躬	-3532
颜色	-3533
黑暗	-3534
110	-3535
ail	-3536
hel	-3537
shi	-3538
▁PS	-3539
▁一起	-3540
▁不能	-3541
▁中午	-3542
▁以为	-3543
▁你敢	-3544
▁再次	-3545
▁劳资	-3546
▁即使	-3547
▁在这	-3548
▁天天	-3549
▁天气	-3550
▁就像	-3551
▁当时	-3552
▁当然	-3553
▁我在	-3554
▁推荐	-3555
▁曾经	-3556
▁有点	-3557
▁果然	-3558
▁祝您	-3559
▁祝愿	-3560
▁祝福	-3561
▁让我	-3562
▁还好	-3563
▁除了	-3564
、、、	-3565
一切都	-3566
一句话	-3567
三八节	-3568
不同的	-3569
不和谐	-3570
了一些	-3571
些什么	-3572
做的事	-3573
其他人	-3574
到一个	-3575
努力的	-3576
北京的	-3577
周杰伦	-3578
和我们	-3579
咬手帕	-3580
啦啦啦	-3581
因为你	-3582
在你的	-3583
在我们	-3584
在我的	-3585
在网上	-3586
在那里	-3587
多少钱	-3588
失去了	-3589
好不好	-3590
好意思	-3591
实在太	-3592
客户端	-3593
就是我	-3594
就觉得	-3595
工作的	-3596
弥陀佛	-3597
很高兴	-3598
怎么会	-3599
怎样的	-3600
悲催的	-3601
情人节	-3602
愚人节	-3603
感动了	-3604
我只是	-3605
打哈气	-3606
把我的	-3607
摄影师	-3608
收到了	-3609
新加坡	-3610
有的人	-3611
有这么	-3612
有问题	-3613
每一位	-3614
永远都	-3615
沈昌珉	-3616
熟悉的	-3617
爱我的	-3618
特别想	-3619
特别是	-3620
狠狠的	-3621
生活在	-3622
瘦肉精	-3623
的力量	-3624
的工作	-3625
的态度	-3626
的理由	-3627
的看着	-3628
的自己	-3629
的还是	-3630
相当于	-3631
看到你	-3632
看到的	-3633
真给力	-3634
社会的	-3635
竟然在	-3636
第一张	-3637
第二个	-3638
自己是	-3639
自行车	-3640
说不出	-3641
谢谢你	-3642
还是很	-3643
这两天	-3644
这个人	-3645
这是我	-3646
金希澈	-3647
阿森纳	-3648
飞机上	-3649
默默的	-3650
??!!	-3651
||||	-3652
▁一定要	-3653
▁我不是	-3654
▁我相信	-3655
▁没想到	-3656
但是我们	-3657
可怕的是	-3658
安徽卫视	-3659
我连对象	-3660
新的一年	-3661
新闻联播	-3662
无聊无聊	-3663
每一个人	-3664
的朋友们	-3665
突然发现	-3666
继续努力	-3667
觉得自己	-3668
谢谢大家	-3669
这么多人	-3670
这张照片	-3671
这是一个	-3672
▁----	-3673
▁新年快乐	-3674
儿童节快乐	-3675
我已经习惯	-3676
羡慕嫉妒恨	-3677
让我们一起	-3678
▁555555	-3679
。。。。。。。	-3680
我连对象都没有	-3681
▁啊啊啊啊啊啊啊啊	-3682
眼花缭乱眼花缭乱眼花缭乱眼花缭乱	-3683
!)	-3684
%,	-3685
%;	-3686
(╯	-3687
,1	-3688
,8	-3689
.6	-3690
27	-3691
28	-3692
3.	-3693
CE	-3694
DP	-3695
TC	-3696
YO	-3697
YY	-3698
]。	-3699
ah	-3700
iP	-3701
ik	-3702
im	-3703
la	-3704
li	-3705
ob	-3706
ss	-3707
to	-3708
ua	-3709
≧▽	-3710
╰)	-3711
▁几	-3712
▁十	-3713
▁向	-3714
▁哦	-3715
▁哪	-3716
▁哼	-3717
▁女	-3718
▁它	-3719
▁您	-3720
▁擦	-3721
▁放	-3722
▁海	-3723
▁等	-3724
▁经	-3725
▁赞	-3726
▁车	-3727
▁黑	-3728
▽〒	-3729
一万	-3730
一幕	-3731
万分	-3732
万岁	-3733
三四	-3734
上个	-3735
上天	-3736
上演	-3737
不吃	-3738
不成	-3739
不来	-3740
世博	-3741
丝毫	-3742
严肃	-3743
个个	-3744
个去	-3745
丫丫	-3746
中学	-3747
中毒	-3748
临近	-3749
为毛	-3750
主任	-3751
久辛	-3752
之人	-3753
之际	-3754
乐乐	-3755
也为	-3756
也被	-3757
书店	-3758
买到	-3759
亏亏	-3760
五年	-3761
亲自	-3762
人吗	-3763
人命	-3764
人和	-3765
人品	-3766
人大	-3767
人才	-3768
人物	-3769
亿元	-3770
今儿	-3771
今早	-3772
介意	-3773
从不	-3774
仔细	-3775
但也	-3776
住了	-3777
何必	-3778
你看	-3779
保障	-3780
信心	-3781
假的	-3782
假装	-3783
做点	-3784
停止	-3785
停车	-3786
健美	-3787
偶然	-3788
儿园	-3789
充电	-3790
克力	-3791
全身	-3792
公安	-3793
公里	-3794
六点	-3795
关怀	-3796
内的	-3797
再也	-3798
冰箱	-3799
冷水	-3800
冷漠	-3801
分别	-3802
刑事	-3803
刚好	-3804
利亚	-3805
别再	-3806
制造	-3807
加入	-3808
勇气	-3809
包的	-3810
化学	-3811
区别	-3812
十八	-3813
十足	-3814
午餐	-3815
午饭	-3816
半场	-3817
卑微	-3818
占了	-3819
危机	-3820
却让	-3821
去买	-3822
叔叔	-3823
口味	-3824
只好	-3825
可悲	-3826
号的	-3827
吃个	-3828
吃点	-3829
合同	-3830
合理	-3831
吉他	-3832
周围	-3833
周年	-3834
和他	-3835
和大	-3836
和平	-3837
咔咔	-3838
唯有	-3839
嘲笑	-3840
回味	-3841
回报	-3842
国庆	-3843
圆通	-3844
地产	-3845
地位	-3846
地说	-3847
培训	-3848
墙上	-3849
外地	-3850
夜的	-3851
大厦	-3852
大师	-3853
大爷	-3854
天朝	-3855
夫妻	-3856
失败	-3857
好吗	-3858
如意	-3859
妹纸	-3860
始源	-3861
娜娜	-3862
子们	-3863
子女	-3864
它的	-3865
安的	-3866
完工	-3867
宝存	-3868
宝马	-3869
实践	-3870
实验	-3871
对的	-3872
封面	-3873
将近	-3874
小伙	-3875
小偷	-3876
小区	-3877
尝试	-3878
就业	-3879
就只	-3880
就当	-3881
局长	-3882
山的	-3883
崇拜	-3884
差距	-3885
帅了	-3886
带的	-3887
干了	-3888
干掉	-3889
幽默	-3890
广东	-3891
广场	-3892
开门	-3893
弄得	-3894
弱势	-3895
弱智	-3896
当事	-3897
得意	-3898
心态	-3899
心愿	-3900
忐忑	-3901
性格	-3902
总结	-3903
总统	-3904
恶劣	-3905
情人	-3906
想着	-3907
感的	-3908
成员	-3909
我该	-3910
我这	-3911
手段	-3912
手的	-3913
承诺	-3914
报告	-3915
拜年	-3916
拥护	-3917
拥抱	-3918
拿走	-3919
按摩	-3920
损失	-3921
捧场	-3922
排名	-3923
接待	-3924
接着	-3925
提示	-3926
搞了	-3927
摇滚	-3928
放到	-3929
放大	-3930
放过	-3931
整整	-3932
文明	-3933
新娘	-3934
新鲜	-3935
旋律	-3936
普遍	-3937
暴力	-3938
最有	-3939
月饼	-3940
本营	-3941
杀青	-3942
极端	-3943
果断	-3944
标志	-3945
桃花	-3946
案件	-3947
桌子	-3948
榜样	-3949
模式	-3950
樱桃	-3951
樱花	-3952
欢欢	-3953
欣慰	-3954
正确	-3955
死刑	-3956
比我	-3957
气了	-3958
气场	-3959
气氛	-3960
水滴	-3961
没法	-3962
没见	-3963
没钱	-3964
河南	-3965
治愈	-3966
法官	-3967
法的	-3968
泪流	-3969
流泪	-3970
淘汰	-3971
深的	-3972
清晨	-3973
温州	-3974
温度	-3975
满满	-3976
炒作	-3977
点儿	-3978
烦恼	-3979
烦躁	-3980
热烈	-3981
热的	-3982
熊猫	-3983
爆了	-3984
片段	-3985
版的	-3986
牛奶	-3987
牺牲	-3988
独特	-3989
猪头	-3990
玩玩	-3991
玻璃	-3992
理发	-3993
理念	-3994
理论	-3995
生存	-3996
生意	-3997
留在	-3998
疼啊	-3999
痛了	-4000
白的	-4001
白菜	-4002
的嘛	-4003
的国	-4004
的家	-4005
的新	-4006
的肉	-4007
真不	-4008
真爱	-4009
眨眼	-4010
睡个	-4011
睡到	-4012
确定	-4013
礼貌	-4014
离我	-4015
种种	-4016
秩序	-4017
积分	-4018
穷人	-4019
站着	-4020
笔笔	-4021
签售	-4022
管制	-4023
糊涂	-4024
红包	-4025
红歌	-4026
红的	-4027
纷纷	-4028
纽约	-4029
结论	-4030
给他	-4031
老娘	-4032
联合	-4033
肩膀	-4034
背后	-4035
背影	-4036
背景	-4037
脑海	-4038
脸红	-4039
自觉	-4040
舒适	-4041
般的	-4042
良知	-4043
艰难	-4044
艺人	-4045
英国	-4046
落的	-4047
行政	-4048
街头	-4049
表白	-4050
要不	-4051
要去	-4052
见证	-4053
见面	-4054
规定	-4055
言论	-4056
论文	-4057
证据	-4058
诡异	-4059
诱惑	-4060
谁能	-4061
谴责	-4062
负担	-4063
资产	-4064
走向	-4065
越南	-4066
跑到	-4067
跟着	-4068
输了	-4069
过于	-4070
过着	-4071
进来	-4072
送我	-4073
邀请	-4074
那时	-4075
那段	-4076
邻居	-4077
都快	-4078
配合	-4079
醒的	-4080
重新	-4081
锻炼	-4082
阴暗	-4083
阶段	-4084
陈翔	-4085
随手	-4086
随着	-4087
隔壁	-4088
集团	-4089
面试	-4090
频道	-4091
题材	-4092
餐厅	-4093
馒头	-4094
马桶	-4095
驾驶	-4096
骂我	-4097
骚扰	-4098
骨折	-4099
高手	-4100
高速	-4101
麻将	-4102
麻辣	-4103
鼻涕	-4104
300	-4105
^_^	-4106
ang	-4107
ina	-4108
oog	-4109
≦)/	-4110
▁~~	-4111
▁不再	-4112
▁人民	-4113
▁但我	-4114
▁只有	-4115
▁周末	-4116
▁奶奶	-4117
▁宝宝	-4118
▁就算	-4119
▁尽管	-4120
▁幸福	-4121
▁很多	-4122
▁心里	-4123
▁我不	-4124
▁我好	-4125
▁我说	-4126
▁或许	-4127
▁所有	-4128
▁据说	-4129
▁时间	-4130
▁爱你	-4131
▁真想	-4132
▁给力	-4133
▁觉得	-4134
▁谁说	-4135
▁还要	-4136
▁顺便	-4137
〒▽〒	-4138
一下吧	-4139
一个个	-4140
一点点	-4141
三个月	-4142
下来了	-4143
下班了	-4144
不是很	-4145
不相信	-4146
不给力	-4147
不舒服	-4148
世界的	-4149
为我们	-4150
了好多	-4151
什么呢	-4152
今天又	-4153
以来的	-4154
你一直	-4155
你妹啊	-4156
你真的	-4157
做不到	-4158
健美操	-4159
去参加	-4160
呢还是	-4161
和自己	-4162
哇哈哈	-4163
图书馆	-4164
多少人	-4165
多少次	-4166
大学的	-4167
太多了	-4168
女人的	-4169
女朋友	-4170
好幸福	-4171
实际上	-4172
小时的	-4173
就那么	-4174
巧克力	-4175
已经有	-4176
希望你	-4177
带来了	-4178
年轻的	-4179
并不是	-4180
幼儿园	-4181
得到了	-4182
微博上	-4183
快乐的	-4184
怎么能	-4185
恶心了	-4186
我以为	-4187
我们在	-4188
我的手	-4189
我终于	-4190
我表示	-4191
我这个	-4192
支付宝	-4193
放心的	-4194
无论是	-4195
日本的	-4196
星星眼	-4197
更好的	-4198
最初的	-4199
有一种	-4200
有意思	-4201
有点儿	-4202
每一个	-4203
毛主席	-4204
活下去	-4205
漂亮的	-4206
爱你的	-4207
王久辛	-4208
生活的	-4209
的一张	-4210
的严重	-4211
的中国	-4212
的今天	-4213
的心态	-4214
的我们	-4215
的支持	-4216
的效果	-4217
的新闻	-4218
的比赛	-4219
的活动	-4220
的电影	-4221
的电话	-4222
的阳光	-4223
的高考	-4224
看电视	-4225
真不是	-4226
真是太	-4227
真的有	-4228
着我的	-4229
竟然是	-4230
第二天	-4231
算什么	-4232
红十字	-4233
给了我	-4234
给他们	-4235
绝对是	-4236
美国人	-4237
老太太	-4238
肿么了	-4239
艺术家	-4240
让他们	-4241
说出来	-4242
谢谢啊	-4243
跟你说	-4244
还没有	-4245
还真是	-4246
这么难	-4247
这首歌	-4248
都觉得	-4249
都这么	-4250
麻痹的	-4251
2009	-4252
\(≧▽	-4253
itty	-4254
▁!!!	-4255
▁~~~	-4256
▁。。。	-4257
▁伤不起	-4258
▁哇哈哈	-4259
▁在这个	-4260
▁当我们	-4261
▁我一直	-4262
▁我以为	-4263
▁我发现	-4264
▁我已经	-4265
▁我现在	-4266
▁我记得	-4267
▁真的很	-4268
▁这两天	-4269
▁这几天	-4270
▁这是我	-4271
什么都不	-4272
作为一个	-4273
好不容易	-4274
完全没有	-4275
就是一个	-4276
就是为了	-4277
感谢那些	-4278
我们都是	-4279
最后一天	-4280
此时此刻	-4281
没有一个	-4282
没有那么	-4283
的有木有	-4284
解决问题	-4285
hello	-4286
~~~~[	-4287
三八妇女节	-4288
什么都没有	-4289
TTTTTT	-4290
~~~~~~	-4291
\(≧▽≦)/	-4292
,0	-4293
,4	-4294
,5	-4295
-3	-4296
.9	-4297
2,	-4298
29	-4299
36	-4300
85	-4301
:@	-4302
;&	-4303
;,	-4304
FO	-4305
GO	-4306
IE	-4307
LI	-4308
PC	-4309
SJ	-4310
ev	-4311
fi	-4312
my	-4313
no	-4314
ny	-4315
pp	-4316
ra	-4317
te	-4318
up	-4319
▁"	-4320
▁)	-4321
▁9	-4322
▁P	-4323
▁R	-4324
▁W	-4325
▁与	-4326
▁会	-4327
▁双	-4328
▁吃	-4329
▁各	-4330
▁吓	-4331
▁呜	-4332
▁喝	-4333
▁嗯	-4334
▁因	-4335
▁妈	-4336
▁姐	-4337
▁广	-4338
▁建	-4339
▁找	-4340
▁敢	-4341
▁正	-4342
▁江	-4343
▁现	-4344
▁第	-4345
▁胖	-4346
▁西	-4347
▁试	-4348
▁近	-4349
▁额	-4350
★★	-4351
。(	-4352
一個	-4353
一副	-4354
一动	-4355
一是	-4356
一米	-4357
一身	-4358
一辆	-4359
万人	-4360
上下	-4361
上市	-4362
不信	-4363
不发	-4364
不大	-4365
不太	-4366
不安	-4367
不干	-4368
不开	-4369
不被	-4370
不许	-4371
不远	-4372
与我	-4373
业余	-4374
两句	-4375
中了	-4376
中最	-4377
中有	-4378
中石	-4379
为之	-4380
为她	-4381
主播	-4382
之中	-4383
乐观	-4384
乞讨	-4385
也只	-4386
也在	-4387
了近	-4388
二是	-4389
互动	-4390
互联	-4391
五点	-4392
亚运	-4393
亲妈	-4394
亲情	-4395
人道	-4396
人间	-4397
今后	-4398
令我	-4399
价比	-4400
众人	-4401
会员	-4402
会很	-4403
伟大	-4404
体重	-4405
作者	-4406
你个	-4407
你却	-4408
你太	-4409
你让	-4410
使劲	-4411
依靠	-4412
修养	-4413
借口	-4414
做梦	-4415
做法	-4416
停赛	-4417
健身	-4418
傍晚	-4419
儿了	-4420
元宵	-4421
充分	-4422
光了	-4423
光线	-4424
全程	-4425
公车	-4426
关爱	-4427
关闭	-4428
内疚	-4429
内部	-4430
写得	-4431
农药	-4432
冰小	-4433
出台	-4434
出国	-4435
出息	-4436
出租	-4437
切尔	-4438
刚出	-4439
创作	-4440
判断	-4441
刷屏	-4442
前的	-4443
动手	-4444
包包	-4445
包子	-4446
十三	-4447
千年	-4448
卖了	-4449
南航	-4450
博主	-4451
却不	-4452
却在	-4453
压抑	-4454
去拍	-4455
去死	-4456
又能	-4457
双汇	-4458
反感	-4459
反省	-4460
发出	-4461
发誓	-4462
变了	-4463
变化	-4464
另一	-4465
司法	-4466
各大	-4467
名义	-4468
名牌	-4469
后期	-4470
吐槽	-4471
听听	-4472
吼吼	-4473
周五	-4474
哈尼	-4475
响起	-4476
唱片	-4477
唱的	-4478
啊亲	-4479
嗓子	-4480
嘴巴	-4481
团圆	-4482
困啊	-4483
国产	-4484
在想	-4485
在车	-4486
地上	-4487
地址	-4488
地步	-4489
场了	-4490
墨绿	-4491
复习	-4492
夕阳	-4493
外人	-4494
多数	-4495
多远	-4496
大利	-4497
大包	-4498
大吉	-4499
大妈	-4500
大楼	-4501
大赛	-4502
大道	-4503
天了	-4504
天然	-4505
天鹅	-4506
夸张	-4507
奇迹	-4508
女士	-4509
奴隶	-4510
奶粉	-4511
好处	-4512
妖怪	-4513
妙的	-4514
姿势	-4515
威胁	-4516
嫌弃	-4517
宋茜	-4518
审核	-4519
家族	-4520
对他	-4521
对此	-4522
对着	-4523
寺庙	-4524
小哥	-4525
就去	-4526
就发	-4527
就问	-4528
屁颠	-4529
屋子	-4530
工体	-4531
巴西	-4532
巴黎	-4533
平米	-4534
年头	-4535
应用	-4536
底线	-4537
庚饭	-4538
开会	-4539
开水	-4540
开的	-4541
强悍	-4542
当中	-4543
当当	-4544
形式	-4545
往事	-4546
待遇	-4547
得成	-4548
得罪	-4549
得要	-4550
心思	-4551
心碎	-4552
心脏	-4553
总算	-4554
悦悦	-4555
情怀	-4556
情愿	-4557
情景	-4558
情的	-4559
惊人	-4560
惩罚	-4561
惬意	-4562
想买	-4563
想哭	-4564
感激	-4565
懒觉	-4566
成的	-4567
我再	-4568
我吧	-4569
我国	-4570
我已	-4571
我操	-4572
我跟	-4573
或少	-4574
或是	-4575
战友	-4576
手指	-4577
才有	-4578
打着	-4579
打车	-4580
执行	-4581
扯淡	-4582
找你	-4583
承受	-4584
投票	-4585
报的	-4586
报纸	-4587
抱怨	-4588
拆了	-4589
拉面	-4590
拍到	-4591
拍过	-4592
招行	-4593
拜仁	-4594
拥挤	-4595
按照	-4596
捐款	-4597
换了	-4598
掉线	-4599
接触	-4600
提案	-4601
揪心	-4602
摩托	-4603
撒娇	-4604
播出	-4605
操作	-4606
改善	-4607
效率	-4608
教辅	-4609
敢于	-4610
文艺	-4611
断了	-4612
方的	-4613
无耻	-4614
无能	-4615
无视	-4616
日日	-4617
早起	-4618
时不	-4619
明年	-4620
春晚	-4621
是出	-4622
是那	-4623
显得	-4624
晋级	-4625
更是	-4626
最佳	-4627
有几	-4628
有毛	-4629
有着	-4630
有限	-4631
服装	-4632
望着	-4633
期末	-4634
机器	-4635
机构	-4636
杀伤	-4637
材料	-4638
村民	-4639
条路	-4640
来吧	-4641
来看	-4642
果冻	-4643
果果	-4644
柔软	-4645
核电	-4646
检查	-4647
检讨	-4648
森林	-4649
欢欣	-4650
欧冠	-4651
欧洲	-4652
正经	-4653
步步	-4654
比你	-4655
毛衣	-4656
民间	-4657
气息	-4658
汉奸	-4659
汗水	-4660
污染	-4661
沙发	-4662
沮丧	-4663
法律	-4664
浏览	-4665
海啸	-4666
海洋	-4667
消停	-4668
深入	-4669
混蛋	-4670
清纯	-4671
漫长	-4672
潮人	-4673
潮潮	-4674
灯光	-4675
灯火	-4676
灾难	-4677
点了	-4678
点多	-4679
照样	-4680
爱人	-4681
爱疯	-4682
爱过	-4683
牌子	-4684
犯了	-4685
状况	-4686
狗仔	-4687
狗的	-4688
独裁	-4689
猖狂	-4690
猪肉	-4691
王八	-4692
王子	-4693
班牙	-4694
現在	-4695
球员	-4696
用这	-4697
留念	-4698
畜生	-4699
疑问	-4700
病了	-4701
病房	-4702
登场	-4703
百货	-4704
的上	-4705
的全	-4706
的士	-4707
的热	-4708
的电	-4709
的脸	-4710
的视	-4711
的跟	-4712
的长	-4713
的香	-4714
皮卡	-4715
皮肤	-4716
相亲	-4717
相伴	-4718
相思	-4719
相爱	-4720
眼里	-4721
着她	-4722
着急	-4723
社区	-4724
神秘	-4725
离别	-4726
稀饭	-4727
程序	-4728
稿子	-4729
空调	-4730
立的	-4731
竞争	-4732
笑着	-4733
符合	-4734
紧急	-4735
组合	-4736
给予	-4737
缺失	-4738
美人	-4739
美容	-4740
美满	-4741
美食	-4742
群里	-4743
翩翩	-4744
翻了	-4745
老三	-4746
老实	-4747
老年	-4748
老鼠	-4749
考场	-4750
耻辱	-4751
耽误	-4752
肇事	-4753
肮脏	-4754
胶囊	-4755
自从	-4756
自在	-4757
自拍	-4758
自身	-4759
航空	-4760
艰辛	-4761
花儿	-4762
花开	-4763
花束	-4764
花生	-4765
茅台	-4766
茶叶	-4767
莫名	-4768
萝卜	-4769
蓝色	-4770
虚假	-4771
虽说	-4772
表扬	-4773
被窝	-4774
西红	-4775
要多	-4776
要我	-4777
见了	-4778
见你	-4779
见的	-4780
见识	-4781
言语	-4782
警车	-4783
计较	-4784
认可	-4785
认证	-4786
训练	-4787
试试	-4788
该是	-4789
说他	-4790
说要	-4791
课程	-4792
财富	-4793
败了	-4794
赔偿	-4795
跑了	-4796
跑步	-4797
路的	-4798
身在	-4799
身影	-4800
车窗	-4801
辉煌	-4802
辽宁	-4803
这家	-4804
这小	-4805
远远	-4806
迟到	-4807
逃避	-4808
透了	-4809
速来	-4810
道路	-4811
部队	-4812
醒了	-4813
里了	-4814
里用	-4815
金钱	-4816
钱了	-4817
铖铖	-4818
销魂	-4819
闭上	-4820
阅读	-4821
队长	-4822
陪她	-4823
随意	-4824
隐形	-4825
零食	-4826
面孔	-4827
预告	-4828
领巾	-4829
风雨	-4830
饮料	-4831
首次	-4832
香味	-4833
马屁	-4834
骂你	-4835
高贵	-4836
鲜艳	-4837
黑线	-4838
鼓舞	-4839
,10	-4840
120	-4841
800	-4842
?!!	-4843
JYJ	-4844
all	-4845
fac	-4846
fox	-4847
lan	-4848
mua	-4849
▁MD	-4850
▁一群	-4851
▁也不	-4852
▁到了	-4853
▁发现	-4854
▁呜呜	-4855
▁哼哼	-4856
▁嘻嘻	-4857
▁多么	-4858
▁她们	-4859
▁好好	-4860
▁姐姐	-4861
▁已经	-4862
▁幸好	-4863
▁忽然	-4864
▁总是	-4865
▁我去	-4866
▁我都	-4867
▁无奈	-4868
▁欢迎	-4869
▁比如	-4870
▁永远	-4871
▁牛逼	-4872
▁看看	-4873
▁竟然	-4874
▁老大	-4875
▁老天	-4876
▁老娘	-4877
▁请问	-4878
▁谁能	-4879
▁这里	-4880
▁郁闷	-4881
▁面对	-4882
一起来	-4883
一首歌	-4884
不住了	-4885
不可以	-4886
不得了	-4887
不断的	-4888
不是我	-4889
不管是	-4890
个人的	-4891
为他们	-4892
习惯了	-4893
了一天	-4894
了一条	-4895
了个去	-4896
了几个	-4897
于是就	-4898
互联网	-4899
人家的	-4900
什么了	-4901
以前的	-4902
你们了	-4903
你们都	-4904
保持着	-4905
做一个	-4906
做什么	-4907
做自己	-4908
公务员	-4909
其他的	-4910
再也不	-4911
冰小宝	-4912
准备去	-4913
切尔西	-4914
到最后	-4915
到现场	-4916
半小时	-4917
历史上	-4918
又开始	-4919
发改委	-4920
发生了	-4921
只能说	-4922
可以在	-4923
同胞们	-4924
听不懂	-4925
和所有	-4926
啥时候	-4927
喜欢看	-4928
回北京	-4929
回来的	-4930
因为他	-4931
在哪里	-4932
在外面	-4933
坚强的	-4934
多少个	-4935
大家在	-4936
大本营	-4937
太可怕	-4938
好吃的	-4939
婚纱照	-4940
媒体的	-4941
对你的	-4942
居然是	-4943
已存在	-4944
已经很	-4945
希望他	-4946
幸福了	-4947
当事人	-4948
当然是	-4949
很感动	-4950
怎么就	-4951
怎么说	-4952
性价比	-4953
怪不得	-4954
恨不得	-4955
您不是	-4956
想知道	-4957
意大利	-4958
感觉到	-4959
我不想	-4960
把它们	-4961
搞不懂	-4962
搞什么	-4963
收视率	-4964
改变了	-4965
方便面	-4966
无语了	-4967
明明很	-4968
明显的	-4969
星期天	-4970
是一件	-4971
是真的	-4972
是非常	-4973
有人抄	-4974
有多么	-4975
有点像	-4976
核电站	-4977
欢乐的	-4978
残疾人	-4979
每个月	-4980
没关系	-4981
没必要	-4982
没文化	-4983
油菜花	-4984
激动的	-4985
然后去	-4986
生活中	-4987
用我的	-4988
用的是	-4989
的人儿	-4990
的作品	-4991
的回忆	-4992
的围脖	-4993
的女孩	-4994
的所有	-4995
的消息	-4996
的男人	-4997
的童鞋	-4998
的等待	-4999
的美好	-5000
的行为	-5001
的表演	-5002
的路上	-5003
的那么	-5004
看到一	-5005
看到我	-5006
看完了	-5007
着你的	-5008
睡一觉	-5009
知道你	-5010
知道我	-5011
老人家	-5012
说谢谢	-5013
负责任	-5014
起来就	-5015
辛苦苦	-5016
还不错	-5017
还以为	-5018
还是不	-5019
还是会	-5020
还是在	-5021
这两个	-5022
这些人	-5023
这才是	-5024
遥远的	-5025
郭美美	-5026
都不会	-5027
都不敢	-5028
都不是	-5029
都不能	-5030
都不错	-5031
都那么	-5032
重要的	-5033
错过了	-5034
陈宝存	-5035
黑名单	-5036
TATA	-5037
]...	-5038
▁NND	-5039
▁一切都	-5040
▁为神马	-5041
▁你可以	-5042
▁可怜的	-5043
▁可是我	-5044
▁在这里	-5045
▁对不起	-5046
▁小时候	-5047
▁尼玛啊	-5048
▁怎么办	-5049
▁我想说	-5050
▁我明明	-5051
▁我还是	-5052
▁有那么	-5053
▁李晟敏	-5054
▁草泥马	-5055
中秋晚会	-5056
也不知道	-5057
了一下午	-5058
几个小时	-5059
受不了了	-5060
如果没有	-5061
很多东西	-5062
感谢你们	-5063
感谢大家	-5064
我我就敢	-5065
我真的是	-5066
新年快乐	-5067
是最棒的	-5068
最喜欢的	-5069
没有什么	-5070
生日礼物	-5071
的日子里	-5072
越来越多	-5073
跟我一样	-5074
辛辛苦苦	-5075
重要的是	-5076
oogle	-5077
▁如果可以	-5078
▁感谢所有	-5079
▁我喜欢你	-5080
▁阿弥陀佛	-5081
中秋节快乐	-5082
有没有想过	-5083
的感觉真好	-5084
▁不要说什么	-5085
▁如果有一天	-5086
有没有有没有	-5087
???????	-5088
SSSSSSSS	-5089
\(≧▽≦)/~	-5090
!!!!!!!!!!!!!!!	-5091
.4	-5092
.[	-5093
2:	-5094
34	-5095
3]	-5096
45	-5097
5,	-5098
58	-5099
59	-5100
72	-5101
8,	-5102
89	-5103
8]	-5104
:"	-5105
AA	-5106
AD	-5107
AK	-5108
AV	-5109
Ch	-5110
DV	-5111
LU	-5112
MB	-5113
MD	-5114
MI	-5115
ML	-5116
SU	-5117
TE	-5118
TR	-5119
UT	-5120
VE	-5121
]、	-5122
ck	-5123
eb	-5124
fe	-5125
ji	-5126
ld	-5127
pe	-5128
ry	-5129
ta	-5130
ts	-5131
~)	-5132
▁/	-5133
▁E	-5134
▁U	-5135
▁d	-5136
▁w	-5137
▁了	-5138
▁亏	-5139
▁其	-5140
▁写	-5141
▁加	-5142
▁反	-5143
▁叫	-5144
▁同	-5145
▁吴	-5146
▁噗	-5147
▁妞	-5148
▁宝	-5149
▁弄	-5150
▁悲	-5151
▁才	-5152
▁拉	-5153
▁敬	-5154
▁时	-5155
▁歌	-5156
▁火	-5157
▁留	-5158
▁瞧	-5159
▁胡	-5160
▁苏	-5161
▁行	-5162
▁该	-5163
▁调	-5164
▁走	-5165
▁陈	-5166
▁麦	-5167
一出	-5168
一回	-5169
一圈	-5170
一套	-5171
一并	-5172
一律	-5173
一根	-5174
一秒	-5175
一篇	-5176
一致	-5177
一轮	-5178
一面	-5179
三环	-5180
上传	-5181
上火	-5182
上路	-5183
下课	-5184
下载	-5185
下降	-5186
不下	-5187
不全	-5188
不定	-5189
不对	-5190
不就	-5191
不平	-5192
不把	-5193
不掉	-5194
不语	-5195
不高	-5196
专门	-5197
世上	-5198
世纪	-5199
世道	-5200
业务	-5201
东海	-5202
东航	-5203
两张	-5204
个屁	-5205
个性	-5206
丸子	-5207
为人	-5208
为他	-5209
主力	-5210
主场	-5211
主意	-5212
主要	-5213
久的	-5214
之旅	-5215
乏味	-5216
乐趣	-5217
乘客	-5218
书法	-5219
买个	-5220
买车	-5221
了几	-5222
了嘛	-5223
事事	-5224
事啊	-5225
事长	-5226
二人	-5227
交易	-5228
交警	-5229
产业	-5230
产生	-5231
人心	-5232
人是	-5233
人有	-5234
亿万	-5235
仅是	-5236
仍在	-5237
代替	-5238
以下	-5239
以对	-5240
优惠	-5241
优美	-5242
会更	-5243
传播	-5244
伤口	-5245
但他	-5246
你能	-5247
你那	-5248
佩西	-5249
使得	-5250
侮辱	-5251
便衣	-5252
俏皮	-5253
保卫	-5254
保暖	-5255
俩的	-5256
修改	-5257
倒好	-5258
做个	-5259
做为	-5260
做人	-5261
做成	-5262
停下	-5263
傻的	-5264
像个	-5265
儿的	-5266
元旦	-5267
元素	-5268
光荣	-5269
克发	-5270
党员	-5271
全都	-5272
公众	-5273
公寓	-5274
公然	-5275
六月	-5276
兮兮	-5277
兴的	-5278
再接	-5279
再来	-5280
再看	-5281
写了	-5282
写完	-5283
决心	-5284
几百	-5285
凶残	-5286
出卖	-5287
出口	-5288
出名	-5289
创业	-5290
初中	-5291
删掉	-5292
利润	-5293
别墅	-5294
到一	-5295
到手	-5296
到极	-5297
到爆	-5298
制片	-5299
剥夺	-5300
剧组	-5301
动图	-5302
动的	-5303
包裹	-5304
医疗	-5305
医药	-5306
十万	-5307
千里	-5308
升级	-5309
华的	-5310
单纯	-5311
单车	-5312
卖萌	-5313
南方	-5314
博士	-5315
博客	-5316
卡卡	-5317
卡机	-5318
卡片	-5319
厉旭	-5320
去做	-5321
去找	-5322
又一	-5323
又把	-5324
及时	-5325
友人	-5326
友谊	-5327
反映	-5328
发型	-5329
发指	-5330
受到	-5331
口号	-5332
口水	-5333
只求	-5334
叫人	-5335
可耻	-5336
台词	-5337
右手	-5338
吃啊	-5339
各级	-5340
同仁	-5341
后天	-5342
后就	-5343
后援	-5344
后果	-5345
向往	-5346
听见	-5347
听话	-5348
启动	-5349
吸血	-5350
呆了	-5351
呈现	-5352
告别	-5353
周一	-5354
呼呼	-5355
命啊	-5356
咋办	-5357
哪样	-5358
哭着	-5359
唯独	-5360
唱着	-5361
商场	-5362
商量	-5363
啊我	-5364
啤酒	-5365
喝的	-5366
嘎嘎	-5367
嘴里	-5368
四个	-5369
回想	-5370
园林	-5371
国人	-5372
图案	-5373
圈子	-5374
在了	-5375
在他	-5376
在小	-5377
在那	-5378
圭贤	-5379
地区	-5380
地走	-5381
场地	-5382
坏事	-5383
坐车	-5384
坚信	-5385
墨镜	-5386
处女	-5387
处罚	-5388
夏日	-5389
外表	-5390
多名	-5391
多想	-5392
多次	-5393
大人	-5394
大便	-5395
大喊	-5396
大姐	-5397
大气	-5398
大海	-5399
大牌	-5400
大米	-5401
大连	-5402
天后	-5403
太久	-5404
太大	-5405
太过	-5406
夫妇	-5407
头啊	-5408
夸你	-5409
奔驰	-5410
奥巴	-5411
女神	-5412
奶气	-5413
她也	-5414
好久	-5415
好么	-5416
好啊	-5417
好在	-5418
好大	-5419
好歹	-5420
好笑	-5421
如下	-5422
威风	-5423
婆婆	-5424
子上	-5425
学期	-5426
守候	-5427
安好	-5428
安心	-5429
实习	-5430
宠物	-5431
客运	-5432
宣布	-5433
家属	-5434
寒风	-5435
寝室	-5436
对话	-5437
尊敬	-5438
小人	-5439
就够	-5440
就放	-5441
就连	-5442
尼亚	-5443
屁屁	-5444
屏蔽	-5445
展现	-5446
展示	-5447
屠杀	-5448
山路	-5449
工业	-5450
工艺	-5451
左手	-5452
巨大	-5453
已然	-5454
巴塞	-5455
市的	-5456
师大	-5457
带了	-5458
帽子	-5459
干的	-5460
干脆	-5461
平台	-5462
平均	-5463
平淡	-5464
年会	-5465
年华	-5466
并非	-5467
幸亏	-5468
底下	-5469
开场	-5470
开工	-5471
开得	-5472
引发	-5473
引起	-5474
弟兄	-5475
强制	-5476
强行	-5477
当了	-5478
当选	-5479
很少	-5480
很爽	-5481
律宾	-5482
得上	-5483
得以	-5484
得多	-5485
循环	-5486
微微	-5487
心眼	-5488
忍着	-5489
忽略	-5490
怒了	-5491
怜悯	-5492
急着	-5493
怪你	-5494
怪我	-5495
恐怕	-5496
恐慌	-5497
恒大	-5498
悄悄	-5499
悲惨	-5500
惊叹	-5501
惦记	-5502
想把	-5503
愈发	-5504
感触	-5505
慈善	-5506
憋着	-5507
成果	-5508
成真	-5509
成立	-5510
我为	-5511
我吃	-5512
我愿	-5513
我我	-5514
我给	-5515
战斗	-5516
户口	-5517
才华	-5518
打扫	-5519
打扰	-5520
打火	-5521
把人	-5522
把他	-5523
把最	-5524
把这	-5525
抗拒	-5526
抢购	-5527
报应	-5528
抽风	-5529
拇指	-5530
拖车	-5531
招商	-5532
拯救	-5533
拼了	-5534
拿出	-5535
换个	-5536
换来	-5537
掏出	-5538
提升	-5539
搞到	-5540
撒谎	-5541
播报	-5542
收了	-5543
收益	-5544
故宫	-5545
救救	-5546
教养	-5547
教学	-5548
数钱	-5549
斯的	-5550
无意	-5551
无知	-5552
无言	-5553
无辜	-5554
早点	-5555
明的	-5556
明确	-5557
春春	-5558
是张	-5559
显然	-5560
晚了	-5561
暑假	-5562
暴露	-5563
更大	-5564
更爱	-5565
最想	-5566
月底	-5567
有三	-5568
有趣	-5569
服了	-5570
朝鲜	-5571
期望	-5572
期盼	-5573
本土	-5574
本地	-5575
本本	-5576
机关	-5577
李娜	-5578
来听	-5579
来着	-5580
来西	-5581
校友	-5582
桀骜	-5583
案子	-5584
梦中	-5585
梦见	-5586
检察	-5587
检测	-5588
植物	-5589
楼上	-5590
欢喜	-5591
欧美	-5592
欲望	-5593
歌曲	-5594
正是	-5595
歧视	-5596
母女	-5597
母爱	-5598
每月	-5599
比比	-5600
毛泽	-5601
毫不	-5602
民生	-5603
民航	-5604
沃尔	-5605
沈阳	-5606
沟通	-5607
没说	-5608
没错	-5609
河北	-5610
油条	-5611
油的	-5612
泡菜	-5613
活力	-5614
流水	-5615
浩珉	-5616
浪屿	-5617
海盗	-5618
淑女	-5619
深沉	-5620
清新	-5621
清爽	-5622
湖边	-5623
演戏	-5624
潜伏	-5625
灯牌	-5626
点钟	-5627
烂片	-5628
爆炸	-5629
爪机	-5630
爹爹	-5631
爽啊	-5632
物品	-5633
牵手	-5634
牵挂	-5635
特征	-5636
特权	-5637
狗血	-5638
狮子	-5639
玩的	-5640
现状	-5641
球场	-5642
甜心	-5643
甜甜	-5644
生物	-5645
用我	-5646
用手	-5647
由此	-5648
由衷	-5649
画了	-5650
疙瘩	-5651
疲惫	-5652
瘦了	-5653
登录	-5654
登机	-5655
白头	-5656
的他	-5657
的前	-5658
的原	-5659
的情	-5660
的把	-5661
的海	-5662
的眼	-5663
的福	-5664
的空	-5665
的被	-5666
的面	-5667
的风	-5668
的饭	-5669
监管	-5670
目睹	-5671
相聚	-5672
相遇	-5673
真有	-5674
着呢	-5675
着实	-5676
短暂	-5677
破坏	-5678
碎觉	-5679
礼品	-5680
私密	-5681
科生	-5682
租金	-5683
稍微	-5684
稳定	-5685
空的	-5686
立即	-5687
站了	-5688
笑话	-5689
笔记	-5690
等了	-5691
等的	-5692
答案	-5693
粽子	-5694
纯粹	-5695
练习	-5696
给谁	-5697
维持	-5698
维权	-5699
绿色	-5700
缘分	-5701
缺点	-5702
美景	-5703
美术	-5704
美甲	-5705
群中	-5706
翻来	-5707
老总	-5708
考上	-5709
耐烦	-5710
联赛	-5711
肉肉	-5712
股票	-5713
胖子	-5714
脚印	-5715
自家	-5716
自豪	-5717
舆论	-5718
艺乐	-5719
花朵	-5720
苏丹	-5721
茫茫	-5722
荒谬	-5723
荣幸	-5724
菠萝	-5725
营销	-5726
蕾丝	-5727
融合	-5728
行程	-5729
行走	-5730
行道	-5731
街道	-5732
装逼	-5733
装饰	-5734
西瓜	-5735
西西	-5736
要养	-5737
规划	-5738
规范	-5739
警报	-5740
证券	-5741
说得	-5742
说过	-5743
读者	-5744
谁的	-5745
调侃	-5746
财务	-5747
质疑	-5748
贪官	-5749
贱货	-5750
贵了	-5751
贵的	-5752
贵阳	-5753
费用	-5754
赛季	-5755
赞美	-5756
赶脚	-5757
起飞	-5758
趁着	-5759
越是	-5760
足协	-5761
路口	-5762
躲在	-5763
车上	-5764
车展	-5765
车祸	-5766
转向	-5767
转啊	-5768
辆车	-5769
辩护	-5770
迎来	-5771
还说	-5772
还跟	-5773
这下	-5774
这群	-5775
远离	-5776
迷们	-5777
送到	-5778
适应	-5779
途中	-5780
通宵	-5781
遗弃	-5782
遭受	-5783
遭遇	-5784
避孕	-5785
還有	-5786
那位	-5787
那小	-5788
那年	-5789
邮件	-5790
部的	-5791
都得	-5792
都给	-5793
重大	-5794
重播	-5795
钢琴	-5796
铁路	-5797
锅煤	-5798
长江	-5799
门了	-5800
门的	-5801
闪亮	-5802
闭眼	-5803
闺蜜	-5804
阿尔	-5805
陪着	-5806
隆重	-5807
隐隐	-5808
集合	-5809
雪人	-5810
雷悦	-5811
需求	-5812
非法	-5813
靠近	-5814
预计	-5815
领域	-5816
题目	-5817
风气	-5818
风险	-5819
飞逝	-5820
食用	-5821
饺子	-5822
饿了	-5823
饿死	-5824
马丁	-5825
马克	-5826
马的	-5827
骂人	-5828
高了	-5829
高尚	-5830
高山	-5831
高峰	-5832
高达	-5833
鸡血	-5834
麻木	-5835
黄河	-5836
龙岩	-5837
1.5	-5838
50%	-5839
50,	-5840
GDP	-5841
ING	-5842
PPT	-5843
_┭┮	-5844
een	-5845
ele	-5846
enj	-5847
ent	-5848
ess	-5849
gin	-5850
hun	-5851
ind	-5852
iss	-5853
ook	-5854
▁--	-5855
▁2、	-5856
▁MB	-5857
▁上午	-5858
▁不会	-5859
▁不带	-5860
▁不想	-5861
▁不然	-5862
▁不错	-5863
▁为何	-5864
▁之前	-5865
▁人生	-5866
▁今儿	-5867
▁从此	-5868
▁他说	-5869
▁你要	-5870
▁你说	-5871
▁值得	-5872
▁儿子	-5873
▁兄弟	-5874
▁六一	-5875
▁同学	-5876
▁同样	-5877
▁后面	-5878
▁味道	-5879
▁哎呦	-5880
▁哎哟	-5881
▁哪个	-5882
▁嗷嗷	-5883
▁回到	-5884
▁天啊	-5885
▁央视	-5886
▁女人	-5887
▁好像	-5888
▁如此	-5889
▁学校	-5890
▁实在	-5891
▁当你	-5892
▁当初	-5893
▁快乐	-5894
▁快点	-5895
▁总之	-5896
▁悲剧	-5897
▁想要	-5898
▁感恩	-5899
▁我也	-5900
▁我这	-5901
▁手机	-5902
▁支持	-5903
▁无法	-5904
▁无聊	-5905
▁春节	-5906
▁有了	-5907
▁有人	-5908
▁有种	-5909
▁有钱	-5910
▁某胡	-5911
▁比赛	-5912
▁泪奔	-5913
▁然而	-5914
▁男人	-5915
▁目前	-5916
▁相信	-5917
▁纠结	-5918
▁至少	-5919
▁讨厌	-5920
▁记得	-5921
▁貌似	-5922
▁身边	-5923
▁这位	-5924
▁这张	-5925
▁重庆	-5926
▁难怪	-5927
▁预祝	-5928
▁高清	-5929
▁高考	-5930
▁麻麻	-5931
、11	-5932
一个大	-5933
一个小	-5934
一个很	-5935
一个最	-5936
一分钟	-5937
一定是	-5938
下一个	-5939
不了了	-5940
不出来	-5941
不去了	-5942
不可能	-5943
不好的	-5944
不认识	-5945
不过是	-5946
不适合	-5947
世界上	-5948
两个人	-5949
也不愿	-5950
买东西	-5951
了一遍	-5952
了不起	-5953
了这个	-5954
二十年	-5955
他们在	-5956
以上的	-5957
任何人	-5958
企业家	-5959
但是我	-5960
你不会	-5961
你不是	-5962
你他妈	-5963
你以为	-5964
你们要	-5965
你是我	-5966
你现在	-5967
你的心	-5968
你这个	-5969
保障房	-5970
充满了	-5971
关键是	-5972
内心的	-5973
再一次	-5974
再接再	-5975
到晚上	-5976
勒个去	-5977
华丽的	-5978
原来的	-5979
去上班	-5980
又不是	-5981
又是一	-5982
发生在	-5983
取消了	-5984
只是个	-5985
可以和	-5986
可怕的	-5987
可是我	-5988
吃不消	-5989
吃多了	-5990
同一个	-5991
吐舌头	-5992
和我的	-5993
因为没	-5994
国民党	-5995
在电视	-5996
坑爹啊	-5997
墨绿的	-5998
外国人	-5999
大部分	-6000
妈妈的	-6001
学习的	-6002
孩子们	-6003
安全感	-6004
完全没	-6005
完成了	-6006
小帅哥	-6007
小汽车	-6008
小盆友	-6009
就不是	-6010
就行了	-6011
尼玛的	-6012
居然在	-6013
崩溃了	-6014
幸运的	-6015
应有的	-6016
开开心	-6017
开心了	-6018
开心啊	-6019
开玩笑	-6020
很幸福	-6021
很快乐	-6022
很简单	-6023
得那么	-6024
心中的	-6025
心情很	-6026
必须要	-6027
总觉得	-6028
想起你	-6029
意外的	-6030
我一个	-6031
我不能	-6032
我也是	-6033
我们会	-6034
我们又	-6035
我们更	-6036
我只能	-6037
我就不	-6038
我心里	-6039
我感觉	-6040
我愿意	-6041
我来说	-6042
我的人	-6043
我认为	-6044
房地产	-6045
打火机	-6046
支持你	-6047
时代的	-6048
明白了	-6049
是不能	-6050
暖暖的	-6051
更喜欢	-6052
更多人	-6053
最讨厌	-6054
最近很	-6055
有意义	-6056
有感觉	-6057
有爱的	-6058
有那么	-6059
李晟敏	-6060
来不及	-6061
来得及	-6062
来西亚	-6063
果然是	-6064
此用户	-6065
毛泽东	-6066
民族的	-6067
永远是	-6068
没时间	-6069
没有了	-6070
浏览器	-6071
淡淡的	-6072
清新的	-6073
灿烂的	-6074
热情的	-6075
然后再	-6076
王八蛋	-6077
玩意儿	-6078
男人的	-6079
的一些	-6080
的世界	-6081
的事实	-6082
的人是	-6083
的孩纸	-6084
的恋爱	-6085
的歌曲	-6086
的民族	-6087
的生日	-6088
的眼神	-6089
的礼物	-6090
的第一	-6091
的经历	-6092
的结果	-6093
的节目	-6094
的过程	-6095
的还有	-6096
的那种	-6097
的黑色	-6098
看不惯	-6099
看不见	-6100
看看这	-6101
看着我	-6102
真是个	-6103
睡觉的	-6104
神经病	-6105
站起来	-6106
笔记本	-6107
等你们	-6108
粉丝们	-6109
纳闷了	-6110
美味的	-6111
老师的	-6112
老板娘	-6113
肿么办	-6114
自己很	-6115
范佩西	-6116
莫名的	-6117
菲律宾	-6118
行不行	-6119
被别人	-6120
西班牙	-6121
西红柿	-6122
要好好	-6123
要开始	-6124
觉得很	-6125
认真的	-6126
设计的	-6127
该多好	-6128
该怎么	-6129
说我们	-6130
请关注	-6131
请大家	-6132
请继续	-6133
谈一场	-6134
走下去	-6135
过不去	-6136
过年了	-6137
还是想	-6138
还给我	-6139
这一切	-6140
这么大	-6141
这么说	-6142
这样做	-6143
进去了	-6144
迷人的	-6145
遇到你	-6146
那样的	-6147
都是我	-6148
里面的	-6149
金俊秀	-6150
长大的	-6151
问题的	-6152
闹哪样	-6153
随意的	-6154
难过的	-6155
静静的	-6156
非常好	-6157
鬼脸二	-6158
黑色的	-6159
鼓浪屿	-6160
～～～	-6161
,500	-6162
2000	-6163
3000	-6164
5000	-6165
CCTV	-6166
DDDD	-6167
appy	-6168
foxm	-6169
logo	-6170
love	-6171
~!!!	-6172
▁...	-6173
▁200	-6174
▁[3]	-6175
▁[8]	-6176
▁于是我	-6177
▁今天的	-6178
▁你以为	-6179
▁你说你	-6180
▁你那叫	-6181
▁其实我	-6182
▁尤其是	-6183
▁尼玛的	-6184
▁我不想	-6185
▁我只是	-6186
▁有本事	-6187
▁爱你们	-6188
▁真的好	-6189
▁真的是	-6190
▁第一次	-6191
▁给力的	-6192
▁这一天	-6193
一不小心	-6194
一直一直	-6195
一路走好	-6196
不得不说	-6197
中国人民	-6198
中国人的	-6199
中国大陆	-6200
中国特色	-6201
了一会儿	-6202
人大代表	-6203
今天晚上	-6204
会好起来	-6205
伤不起呀	-6206
你会不会	-6207
你的时候	-6208
关键时刻	-6209
加油加油	-6210
单身久了	-6211
只有一个	-6212
告诉大家	-6213
告诉自己	-6214
和我一样	-6215
喜欢的人	-6216
在你面前	-6217
在我身边	-6218
地方政府	-6219
坚持下去	-6220
好多好多	-6221
实在是太	-6222
就不一样	-6223
就是喜欢	-6224
居然还有	-6225
忽然发现	-6226
怎么这么	-6227
我们依然	-6228
我们这个	-6229
我的寂寞	-6230
找男朋友	-6231
整个过程	-6232
无敌老妈	-6233
早上起来	-6234
是这样的	-6235
有关部门	-6236
泪流满面	-6237
爸爸妈妈	-6238
的时候我	-6239
目前为止	-6240
看见你的	-6241
真是让人	-6242
社会主义	-6243
这个社会	-6244
这么大的	-6245
这样的人	-6246
这种事情	-6247
这种感觉	-6248
那么多人	-6249
那叫一个	-6250
郑允浩和	-6251
都是浮云	-6252
都有一个	-6253
马来西亚	-6254
!!!![	-6255
,2011	-6256
kitty	-6257
┭┮_┭┮	-6258
▁世界上最	-6259
▁今天终于	-6260
▁六一快乐	-6261
▁好不容易	-6262
▁我了个去	-6263
▁有木有啊	-6264
▁气死我了	-6265
、11.0	-6266
不知道自己	-6267
兄弟姐妹们	-6268
哈哈哈哈哈	-6269
慢慢才知道	-6270
才是真正的	-6271
是不是应该	-6272
没有不和谐	-6273
的人都知道	-6274
身边的朋友	-6275
iPhone	-6276
······	-6277
啊啊啊啊啊啊	-6278
此用户已存在	-6279
!......	-6280
foxmail	-6281
~~~~~~~	-6282
·······	-6283
伤不起啊伤不起	-6284
我已经习惯一个人	-6285
~\(≧▽≦)/~	-6286
hellokitty	-6287
啊啊啊啊啊啊啊啊啊啊啊	-6288
................	-6289
!(	-6290
(@	-6291
(^	-6292
(_	-6293
(∩	-6294
-0	-6295
23	-6296
2、	-6297
32	-6298
37	-6299
3、	-6300
4.	-6301
4、	-6302
66	-6303
75	-6304
79	-6305
87	-6306
:《	-6307
;;	-6308
==	-6309
>,	-6310
BI	-6311
BO	-6312
BS	-6313
ER	-6314
GB	-6315
ID	-6316
LE	-6317
LY	-6318
MG	-6319
MO	-6320
NC	-6321
NI	-6322
RE	-6323
SA	-6324
_∩	-6325
ao	-6326
au	-6327
by	-6328
cm	-6329
co	-6330
ey	-6331
gz	-6332
ir	-6333
ke	-6334
mm	-6335
mo	-6336
oy	-6337
po	-6338
ti	-6339
tu	-6340
wi	-6341
ww	-6342
xi	-6343
xx	-6344
yj	-6345
~,	-6346
▁f	-6347
▁l	-6348
▁n	-6349
▁r	-6350
▁t	-6351
▁·	-6352
▁个	-6353
▁丫	-6354
▁仅	-6355
▁介	-6356
▁光	-6357
▁分	-6358
▁刘	-6359
▁受	-6360
▁另	-6361
▁呵	-6362
▁呸	-6363
▁咋	-6364
▁唯	-6365
▁喜	-6366
▁嗨	-6367
▁嘿	-6368
▁圈	-6369
▁头	-6370
▁干	-6371
▁怎	-6372
▁恩	-6373
▁手	-6374
▁拍	-6375
▁换	-6376
▁改	-6377
▁月	-6378
▁杨	-6379
▁毛	-6380
▁满	-6381
▁物	-6382
▁特	-6383
▁王	-6384
▁瓦	-6385
▁生	-6386
▁痛	-6387
▁睁	-6388
▁破	-6389
▁蜜	-6390
▁装	-6391
▁赛	-6392
▁身	-6393
▁這	-6394
▁银	-6395
▁雪	-6396
▁雷	-6397
▁飞	-6398
》(	-6399
》。	-6400
一一	-6401
一丝	-6402
一共	-6403
一分	-6404
一双	-6405
一处	-6406
一字	-6407
一帮	-6408
一心	-6409
一时	-6410
一杯	-6411
一模	-6412
一的	-6413
一碗	-6414
一笔	-6415
一见	-6416
一跳	-6417
一阵	-6418
一颗	-6419
七点	-6420
万事	-6421
万多	-6422
三人	-6423
三千	-6424
三国	-6425
三年	-6426
三明	-6427
三月	-6428
三聚	-6429
三遍	-6430
三部	-6431
上车	-6432
下跪	-6433
下车	-6434
不久	-6435
不争	-6436
不仁	-6437
不做	-6438
不像	-6439
不合	-6440
不回	-6441
不屑	-6442
不必	-6443
不息	-6444
不明	-6445
不理	-6446
不相	-6447
不算	-6448
不觉	-6449
不通	-6450
与不	-6451
业绩	-6452
东京	-6453
两人	-6454
两只	-6455
两条	-6456
丫头	-6457
中兴	-6458
中饭	-6459
丰功	-6460
为这	-6461
主张	-6462
主流	-6463
举手	-6464
么么	-6465
之作	-6466
之心	-6467
之王	-6468
之行	-6469
乐乎	-6470
乐队	-6471
也算	-6472
也罢	-6473
也该	-6474
书记	-6475
买房	-6476
了小	-6477
了就	-6478
了的	-6479
了这	-6480
二月	-6481
亚当	-6482
些许	-6483
亲戚	-6484
亲手	-6485
人为	-6486
人也	-6487
人事	-6488
人多	-6489
人意	-6490
仍旧	-6491
从军	-6492
从头	-6493
他也	-6494
他和	-6495
他就	-6496
他把	-6497
仙台	-6498
仙后	-6499
们儿	-6500
任意	-6501
企划	-6502
优质	-6503
优雅	-6504
伙伴	-6505
会让	-6506
会议	-6507
伟绩	-6508
传递	-6509
伤了	-6510
伤的	-6511
伴奏	-6512
位的	-6513
低碳	-6514
住在	-6515
住房	-6516
住院	-6517
何况	-6518
何在	-6519
作出	-6520
作秀	-6521
你别	-6522
你又	-6523
你发	-6524
你和	-6525
你我	-6526
你最	-6527
你连	-6528
便主	-6529
便便	-6530
便秘	-6531
促进	-6532
保安	-6533
俺们	-6534
值了	-6535
偕老	-6536
做事	-6537
做完	-6538
做过	-6539
停留	-6540
偷了	-6541
傻瓜	-6542
像你	-6543
像是	-6544
儿啊	-6545
儿女	-6546
元的	-6547
光启	-6548
兔耶	-6549
入侵	-6550
全民	-6551
公主	-6552
公仔	-6553
公园	-6554
公子	-6555
公益	-6556
公英	-6557
六十	-6558
共产	-6559
共计	-6560
关我	-6561
具体	-6562
典礼	-6563
养生	-6564
内伤	-6565
内地	-6566
内牛	-6567
冒充	-6568
冒着	-6569
写真	-6570
写着	-6571
农业	-6572
农历	-6573
冰淇	-6574
冰激	-6575
冲击	-6576
冲我	-6577
冷静	-6578
出入	-6579
出售	-6580
出家	-6581
出席	-6582
出游	-6583
出版	-6584
出身	-6585
分子	-6586
分数	-6587
创新	-6588
利比	-6589
别来	-6590
别说	-6591
到你	-6592
到天	-6593
到老	-6594
刷的	-6595
刹车	-6596
前走	-6597
剧情	-6598
剪影	-6599
力了	-6600
力啊	-6601
功德	-6602
动力	-6603
助攻	-6604
劲儿	-6605
勒比	-6606
勤奋	-6607
包围	-6608
包容	-6609
包邮	-6610
区的	-6611
十五	-6612
十多	-6613
升哥	-6614
午睡	-6615
半个	-6616
半身	-6617
协会	-6618
卓越	-6619
单反	-6620
单品	-6621
博物	-6622
印度	-6623
即刻	-6624
原创	-6625
原本	-6626
又有	-6627
叉烧	-6628
友会	-6629
反思	-6630
发明	-6631
发烧	-6632
发自	-6633
发言	-6634
受过	-6635
口中	-6636
只为	-6637
只小	-6638
可恨	-6639
可愛	-6640
台阶	-6641
叶草	-6642
号召	-6643
司马	-6644
吃吃	-6645
吃大	-6646
吃掉	-6647
合家	-6648
吉利	-6649
同伴	-6650
同行	-6651
后怕	-6652
后续	-6653
吐了	-6654
吐血	-6655
向上	-6656
吓人	-6657
含着	-6658
听歌	-6659
吴奇	-6660
呆着	-6661
呐喊	-6662
呛呛	-6663
周三	-6664
周二	-6665
周踌	-6666
呼噜	-6667
命的	-6668
和小	-6669
咬牙	-6670
品种	-6671
品质	-6672
哎呀	-6673
哥三	-6674
哥的	-6675
哦亲	-6676
哪天	-6677
哭笑	-6678
售价	-6679
售票	-6680
唱红	-6681
商品	-6682
啊这	-6683
啥了	-6684
喉咙	-6685
喜悦	-6686
喜歡	-6687
喜爱	-6688
喝了	-6689
喝着	-6690
嗒嗒	-6691
嘴唇	-6692
嘴角	-6693
噪音	-6694
四处	-6695
四季	-6696
回国	-6697
回眸	-6698
回转	-6699
固定	-6700
固执	-6701
圣诞	-6702
在云	-6703
在县	-6704
在外	-6705
在天	-6706
在建	-6707
在手	-6708
在新	-6709
在的	-6710
在看	-6711
在被	-6712
地利	-6713
地狱	-6714
地窖	-6715
场的	-6716
坏的	-6717
坏笑	-6718
坐了	-6719
坦然	-6720
垄断	-6721
型男	-6722
埋怨	-6723
基因	-6724
基金	-6725
堕落	-6726
堪比	-6727
堵了	-6728
增添	-6729
增肥	-6730
增长	-6731
声明	-6732
外出	-6733
外加	-6734
外套	-6735
外界	-6736
多收	-6737
多种	-6738
夜店	-6739
大为	-6740
大使	-6741
大国	-6742
大奔	-6743
大惊	-6744
大次	-6745
大点	-6746
大胆	-6747
大雨	-6748
天灾	-6749
天王	-6750
太快	-6751
太重	-6752
头等	-6753
头脑	-6754
奕迅	-6755
奖品	-6756
奢侈	-6757
女婿	-6758
她说	-6759
好不	-6760
好嗨	-6761
好有	-6762
好美	-6763
好象	-6764
如我	-6765
如花	-6766
妞妞	-6767
妹子	-6768
始至	-6769
姚晨	-6770
姿态	-6771
娃娃	-6772
娜姐	-6773
婚姻	-6774
嫁给	-6775
子就	-6776
字了	-6777
字幕	-6778
学了	-6779
宁可	-6780
宁波	-6781
它是	-6782
守所	-6783
完啦	-6784
完毕	-6785
官的	-6786
官网	-6787
家乡	-6788
家了	-6789
家汇	-6790
宽容	-6791
宽带	-6792
宾利	-6793
对她	-6794
对待	-6795
对比	-6796
寻觅	-6797
将是	-6798
小了	-6799
小嘴	-6800
小资	-6801
少女	-6802
就出	-6803
就和	-6804
就如	-6805
就很	-6806
就象	-6807
就走	-6808
尴尬	-6809
尸体	-6810
尼坤	-6811
尼斯	-6812
尽了	-6813
尽情	-6814
尽早	-6815
局面	-6816
居住	-6817
屠宰	-6818
山上	-6819
崛起	-6820
州的	-6821
州长	-6822
巨星	-6823
已成	-6824
已經	-6825
巴掌	-6826
市区	-6827
布置	-6828
带上	-6829
带个	-6830
带我	-6831
带电	-6832
常年	-6833
常的	-6834
干活	-6835
年初	-6836
年来	-6837
并将	-6838
幻想	-6839
底层	-6840
店里	-6841
度假	-6842
座的	-6843
建嵘	-6844
开他	-6845
张翰	-6846
强势	-6847
强奸	-6848
当天	-6849
当我	-6850
当的	-6851
待见	-6852
得其	-6853
得出	-6854
心寒	-6855
心血	-6856
必将	-6857
必是	-6858
忍受	-6859
忍耐	-6860
忏悔	-6861
快就	-6862
快来	-6863
怀孕	-6864
思路	-6865
性情	-6866
总之	-6867
总体	-6868
总共	-6869
总局	-6870
总有	-6871
总裁	-6872
恋的	-6873
恐惧	-6874
恩人	-6875
惊吓	-6876
惊心	-6877
惊险	-6878
惭愧	-6879
想看	-6880
意犹	-6881
意见	-6882
感悟	-6883
愤青	-6884
慢了	-6885
慰问	-6886
懂我	-6887
懊恼	-6888
戏了	-6889
戏份	-6890
我信	-6891
我怕	-6892
我才	-6893
我甩	-6894
我老	-6895
我被	-6896
我走	-6897
我选	-6898
我靠	-6899
或多	-6900
截止	-6901
戴上	-6902
戴着	-6903
房产	-6904
手表	-6905
才艺	-6906
打击	-6907
打字	-6908
打工	-6909
打打	-6910
打扮	-6911
打转	-6912
打酱	-6913
执法	-6914
执着	-6915
扼杀	-6916
找事	-6917
找出	-6918
找回	-6919
把它	-6920
把车	-6921
把钱	-6922
抗议	-6923
护士	-6924
报警	-6925
报销	-6926
抬起	-6927
抹杀	-6928
抽了	-6929
拉风	-6930
拘留	-6931
招牌	-6932
拿去	-6933
挂了	-6934
挂科	-6935
指示	-6936
挑选	-6937
挺你	-6938
换成	-6939
掌握	-6940
排练	-6941
接通	-6942
措施	-6943
搬到	-6944
携手	-6945
摄像	-6946
摆着	-6947
摔倒	-6948
摔跤	-6949
撑了	-6950
撒盐	-6951
擦擦	-6952
收工	-6953
改了	-6954
改名	-6955
放上	-6956
放学	-6957
放射	-6958
放松	-6959
放纵	-6960
故乡	-6961
敌敌	-6962
教练	-6963
散步	-6964
散的	-6965
敬佩	-6966
数量	-6967
整洁	-6968
文学	-6969
文物	-6970
断网	-6971
新增	-6972
无事	-6973
无故	-6974
无权	-6975
无线	-6976
无缘	-6977
日记	-6978
早睡	-6979
早餐	-6980
早饭	-6981
明儿	-6982
明早	-6983
星空	-6984
春暖	-6985
是人	-6986
是他	-6987
晒晒	-6988
晓得	-6989
晓明	-6990
晓松	-6991
晕啊	-6992
景点	-6993
晴天	-6994
智的	-6995
暴雨	-6996
曝光	-6997
更不	-6998
曹操	-6999
曾几	-7000
最大	-7001
最早	-7002
最最	-7003
最美	-7004
月了	-7005
月圆	-7006
月天	-7007
月月	-7008
有两	-7009
有啥	-7010
有幸	-7011
有感	-7012
有无	-7013
有毒	-7014
有这	-7015
木兰	-7016
末日	-7017
本子	-7018
机长	-7019
李刚	-7020
杏仁	-7021
村长	-7022
来啦	-7023
松鼠	-7024
极为	-7025
极度	-7026
枪毙	-7027
某某	-7028
某种	-7029
标签	-7030
样儿	-7031
根据	-7032
案例	-7033
桌上	-7034
概念	-7035
歌手	-7036
此类	-7037
步行	-7038
死不	-7039
殴打	-7040
民工	-7041
气愤	-7042
气球	-7043
气象	-7044
水果	-7045
水泥	-7046
水浒	-7047
水瓶	-7048
汇报	-7049
汗颜	-7050
江南	-7051
江湖	-7052
江西	-7053
沒有	-7054
没啥	-7055
没完	-7056
没得	-7057
没睡	-7058
沦陷	-7059
法庭	-7060
泛滥	-7061
波尔	-7062
泰瑞	-7063
洋洋	-7064
洗了	-7065
洗脚	-7066
洪水	-7067
活在	-7068
活得	-7069
流程	-7070
流行	-7071
济南	-7072
海军	-7073
海鲜	-7074
消灭	-7075
深夜	-7076
深度	-7077
混乱	-7078
清明	-7079
湖人	-7080
湖北	-7081
湿了	-7082
滋味	-7083
滋润	-7084
滋滋	-7085
满身	-7086
滴是	-7087
漫画	-7088
澳洲	-7089
火啊	-7090
火热	-7091
火焰	-7092
灭了	-7093
灵的	-7094
灾民	-7095
炫耀	-7096
点击	-7097
点吗	-7098
点头	-7099
点滴	-7100
烦烦	-7101
烧烤	-7102
热水	-7103
焦虑	-7104
焦躁	-7105
煎熬	-7106
照的	-7107
燃油	-7108
燃烧	-7109
爆发	-7110
爱护	-7111
爱着	-7112
爽的	-7113
片场	-7114
牙齿	-7115
牛了	-7116
物理	-7117
物的	-7118
特价	-7119
特拉	-7120
特点	-7121
犯贱	-7122
犹豫	-7123
狂奔	-7124
猛烈	-7125
献给	-7126
献身	-7127
王晓	-7128
玩乐	-7129
玩儿	-7130
玫瑰	-7131
环节	-7132
班的	-7133
生育	-7134
用啊	-7135
用过	-7136
申花	-7137
电了	-7138
电台	-7139
电费	-7140
画画	-7141
画的	-7142
病毒	-7143
痕迹	-7144
痛恨	-7145
百合	-7146
的么	-7147
的信	-7148
的像	-7149
的吃	-7150
的和	-7151
的富	-7152
的店	-7153
的张	-7154
的慌	-7155
的梦	-7156
的清	-7157
的痛	-7158
的箱	-7159
的腰	-7160
的药	-7161
的还	-7162
的金	-7163
的马	-7164
皆是	-7165
监督	-7166
目光	-7167
相似	-7168
相反	-7169
看出	-7170
看吧	-7171
看病	-7172
看脸	-7173
真想	-7174
真没	-7175
真系	-7176
真维	-7177
着不	-7178
睫毛	-7179
矛盾	-7180
知足	-7181
石头	-7182
砸了	-7183
硬盘	-7184
碘酒	-7185
祝您	-7186
神仙	-7187
神圣	-7188
神话	-7189
票房	-7190
禁止	-7191
离婚	-7192
私奔	-7193
租房	-7194
称职	-7195
移民	-7196
稀罕	-7197
空中	-7198
空白	-7199
穿了	-7200
穿的	-7201
穿过	-7202
突破	-7203
童年	-7204
端午	-7205
第五	-7206
策划	-7207
筷子	-7208
箱子	-7209
米饭	-7210
粉的	-7211
粗暴	-7212
粘人	-7213
精算	-7214
糖们	-7215
糟糕	-7216
糟蹋	-7217
累死	-7218
繁荣	-7219
红色	-7220
红花	-7221
红茶	-7222
红酒	-7223
纸巾	-7224
纸的	-7225
细致	-7226
经费	-7227
结合	-7228
给点	-7229
给的	-7230
维修	-7231
编剧	-7232
网民	-7233
罪名	-7234
美男	-7235
老一	-7236
老友	-7237
老外	-7238
老太	-7239
老是	-7240
而又	-7241
耗子	-7242
耳钉	-7243
聆听	-7244
职务	-7245
职工	-7246
肌肉	-7247
肿了	-7248
胡军	-7249
胡椒	-7250
胡歌	-7251
能吃	-7252
能否	-7253
能有	-7254
脊梁	-7255
脱下	-7256
脱离	-7257
脸大	-7258
自习	-7259
自爆	-7260
舍得	-7261
舞美	-7262
舞蹈	-7263
艺声	-7264
芭莎	-7265
花样	-7266
花纹	-7267
花钱	-7268
苏州	-7269
苦恼	-7270
英超	-7271
范范	-7272
荒唐	-7273
荣耀	-7274
获救	-7275
菩萨	-7276
营养	-7277
落下	-7278
落地	-7279
落实	-7280
落魄	-7281
葫芦	-7282
蒲团	-7283
蓝天	-7284
蘑菇	-7285
蛋定	-7286
蛋的	-7287
血啊	-7288
血腥	-7289
补贴	-7290
表面	-7291
装修	-7292
装的	-7293
裤衩	-7294
西南	-7295
要出	-7296
要客	-7297
见人	-7298
触屏	-7299
警惕	-7300
让不	-7301
让她	-7302
讲述	-7303
讽刺	-7304
评委	-7305
诋毁	-7306
话了	-7307
话痨	-7308
话题	-7309
诠释	-7310
该说	-7311
诧异	-7312
说成	-7313
说起	-7314
请假	-7315
课堂	-7316
调戏	-7317
谈论	-7318
谢娜	-7319
谩骂	-7320
贫富	-7321
购买	-7322
贱人	-7323
贴吧	-7324
贵宾	-7325
资委	-7326
赚了	-7327
赤裸	-7328
走来	-7329
起伏	-7330
起到	-7331
起的	-7332
超人	-7333
超好	-7334
超越	-7335
越大	-7336
越好	-7337
跃的	-7338
路了	-7339
跳舞	-7340
身子	-7341
身旁	-7342
车模	-7343
车队	-7344
轰轰	-7345
轻易	-7346
输入	-7347
过后	-7348
过啊	-7349
过瘾	-7350
运气	-7351
近期	-7352
还挺	-7353
还敢	-7354
还蛮	-7355
还行	-7356
这两	-7357
这份	-7358
这几	-7359
这期	-7360
这段	-7361
这片	-7362
远方	-7363
违法	-7364
连锁	-7365
追究	-7366
退役	-7367
送了	-7368
透过	-7369
透露	-7370
這麼	-7371
通往	-7372
造谣	-7373
道具	-7374
遮住	-7375
那份	-7376
都说	-7377
都跟	-7378
配上	-7379
酷的	-7380
采取	-7381
采纳	-7382
释放	-7383
钓鱼	-7384
钞票	-7385
钟云	-7386
钥匙	-7387
钱云	-7388
银川	-7389
错位	-7390
长度	-7391
长得	-7392
长款	-7393
长相	-7394
闪耀	-7395
闪闪	-7396
闹心	-7397
队的	-7398
防护	-7399
阳台	-7400
阶级	-7401
阻挡	-7402
院长	-7403
随你	-7404
随地	-7405
雕刻	-7406
雪了	-7407
雷劈	-7408
雷锋	-7409
露天	-7410
靓女	-7411
非得	-7412
韩饭	-7413
顺畅	-7414
预测	-7415
预防	-7416
频繁	-7417
食堂	-7418
饮食	-7419
香气	-7420
香水	-7421
高出	-7422
高度	-7423
高校	-7424
高端	-7425
高音	-7426
魏晨	-7427
魔盒	-7428
鲸鱼	-7429
鹿岛	-7430
黄牌	-7431
黄色	-7432
黑人	-7433
黑心	-7434
鼻子	-7435
龙虾	-7436
(_)	-7437
);□	-7438
,14	-7439
,20	-7440
,60	-7441
11.	-7442
304	-7443
:00	-7444
CON	-7445
DVD	-7446
KTR	-7447
NND	-7448
Sun	-7449
TIT	-7450
TOT	-7451
TTT	-7452
TVB	-7453
VIP	-7454
_∩)	-7455
ack	-7456
ama	-7457
bie	-7458
che	-7459
eah	-7460
ear	-7461
ery	-7462
ese	-7463
ght	-7464
hit	-7465
ice	-7466
ich	-7467
ond	-7468
ore	-7469
tmd	-7470
╮(╯	-7471
╰)╭	-7472
▁..	-7473
▁1、	-7474
▁20	-7475
▁3、	-7476
▁ME	-7477
▁in	-7478
▁ps	-7479
▁~[	-7480
▁一路	-7481
▁万事	-7482
▁上班	-7483
▁个人	-7484
▁中秋	-7485
▁买了	-7486
▁事实	-7487
▁亲们	-7488
▁从小	-7489
▁他家	-7490
▁但愿	-7491
▁全国	-7492
▁关于	-7493
▁再见	-7494
▁北鼻	-7495
▁历史	-7496
▁又是	-7497
▁又要	-7498
▁发觉	-7499
▁吃饭	-7500
▁同事	-7501
▁哥哥	-7502
▁唯一	-7503
▁在家	-7504
▁好了	-7505
▁寂寞	-7506
▁工作	-7507
▁平时	-7508
▁应该	-7509
▁强烈	-7510
▁彻底	-7511
▁很好	-7512
▁必须	-7513
▁想到	-7514
▁想念	-7515
▁想起	-7516
▁我只	-7517
▁我妈	-7518
▁我恨	-7519
▁我最	-7520
▁我爸	-7521
▁我看	-7522
▁我还	-7523
▁所谓	-7524
▁打开	-7525
▁提前	-7526
▁整个	-7527
▁早晨	-7528
▁昨夜	-7529
▁朋友	-7530
▁每个	-7531
▁没人	-7532
▁漂亮	-7533
▁现场	-7534
▁生活	-7535
▁电视	-7536
▁百度	-7537
▁直接	-7538
▁相当	-7539
▁看完	-7540
▁真好	-7541
▁睡觉	-7542
▁神马	-7543
▁经过	-7544
▁结婚	-7545
▁绝对	-7546
▁美国	-7547
▁翻译	-7548
▁老婆	-7549
▁老爸	-7550
▁考试	-7551
▁艺乐	-7552
▁让人	-7553
▁许多	-7554
▁谁来	-7555
▁还没	-7556
▁进入	-7557
▁连续	-7558
▁那种	-7559
▁韩庚	-7560
▁领导	-7561
▁首先	-7562
▁香港	-7563
一下午	-7564
一下就	-7565
一整天	-7566
一无二	-7567
一直很	-7568
一瞬间	-7569
三聚氰	-7570
上半年	-7571
上微博	-7572
上海的	-7573
上班的	-7574
上辈子	-7575
不一样	-7576
不上了	-7577
不了解	-7578
不仅是	-7579
不停地	-7580
不允许	-7581
不公平	-7582
不吃饭	-7583
不同意	-7584
不如死	-7585
不应该	-7586
不是么	-7587
不是在	-7588
不理解	-7589
不能用	-7590
不要把	-7591
不错啊	-7592
专业的	-7593
两个月	-7594
两年的	-7595
严重的	-7596
个个都	-7597
为了你	-7598
为你的	-7599
之类的	-7600
也不见	-7601
也不错	-7602
也只有	-7603
也希望	-7604
也很好	-7605
也是我	-7606
买了一	-7607
了一把	-7608
了个大	-7609
了半天	-7610
了多少	-7611
了自己	-7612
亦乐乎	-7613
人性化	-7614
人性的	-7615
人生的	-7616
什么叫	-7617
今天我	-7618
今天起	-7619
从早上	-7620
他们去	-7621
他们是	-7622
他居然	-7623
他牵着	-7624
付出的	-7625
价值观	-7626
众不同	-7627
优秀的	-7628
会代表	-7629
体会到	-7630
你丫的	-7631
你妈的	-7632
你是谁	-7633
你每天	-7634
你终于	-7635
你身边	-7636
停下来	-7637
偶像剧	-7638
儿时的	-7639
充电器	-7640
全国的	-7641
兴奋的	-7642
兴趣的	-7643
其实我	-7644
内容的	-7645
再见了	-7646
冰激凌	-7647
出去玩	-7648
出现在	-7649
刚刚在	-7650
利比亚	-7651
别用这	-7652
到不行	-7653
到我的	-7654
到机场	-7655
前几天	-7656
加油哦	-7657
十一点	-7658
十二点	-7659
博友的	-7660
博物馆	-7661
去医院	-7662
去年的	-7663
去旅行	-7664
去消费	-7665
去现场	-7666
又涨了	-7667
发现了	-7668
发生的	-7669
发脾气	-7670
受到了	-7671
只剩下	-7672
只有你	-7673
只有我	-7674
叫一个	-7675
可以把	-7676
可怜了	-7677
可改为	-7678
右哼哼	-7679
吃到了	-7680
吃的是	-7681
合适的	-7682
同事们	-7683
后悔没	-7684
后面的	-7685
周踌琢	-7686
咋这么	-7687
和一个	-7688
和大家	-7689
和我说	-7690
哪里的	-7691
善良的	-7692
回到了	-7693
回家了	-7694
回家去	-7695
回家的	-7696
因为它	-7697
因为有	-7698
团队的	-7699
围脖上	-7700
在帮我	-7701
在睡觉	-7702
在路上	-7703
地发现	-7704
坑爹的	-7705
坚定的	-7706
城市的	-7707
多一些	-7708
大图火	-7709
大多数	-7710
大学了	-7711
大家庭	-7712
大清早	-7713
大自然	-7714
天天有	-7715
天然气	-7716
太可爱	-7717
太帅了	-7718
太棒了	-7719
头等舱	-7720
奇怪的	-7721
好东西	-7722
好久没	-7723
好喜欢	-7724
好多了	-7725
好好的	-7726
好心情	-7727
好怀念	-7728
好朋友	-7729
好样的	-7730
好热闹	-7731
好看的	-7732
如果你	-7733
始至终	-7734
安静的	-7735
完美无	-7736
宝宝的	-7737
宝贝儿	-7738
宝马车	-7739
实现了	-7740
宣传片	-7741
宣传部	-7742
对中国	-7743
对他们	-7744
对你说	-7745
对别人	-7746
小悦悦	-7747
就不想	-7748
就喜欢	-7749
就应该	-7750
就没人	-7751
就没有	-7752
居然有	-7753
岁生日	-7754
崔始源	-7755
巨大的	-7756
年一遇	-7757
并没有	-7758
开心地	-7759
开心的	-7760
强烈的	-7761
当回事	-7762
当官的	-7763
当年的	-7764
很可爱	-7765
很多次	-7766
很多的	-7767
很好吃	-7768
很好看	-7769
很庆幸	-7770
很惬意	-7771
很期待	-7772
很漂亮	-7773
律师的	-7774
徐家汇	-7775
得这么	-7776
心爱的	-7777
怎么还	-7778
恶心的	-7779
惊人的	-7780
惊呆了	-7781
想要的	-7782
意犹未	-7783
感觉了	-7784
成功的	-7785
我不会	-7786
我也会	-7787
我们也	-7788
我们和	-7789
我们家	-7790
我们都	-7791
我只想	-7792
我宁愿	-7793
我容易	-7794
我就会	-7795
我就要	-7796
我开始	-7797
我是个	-7798
我曾经	-7799
我爱他	-7800
我的小	-7801
我看到	-7802
我看着	-7803
我突然	-7804
我还没	-7805
我非常	-7806
我顿时	-7807
或少地	-7808
才刚刚	-7809
把他们	-7810
抱着你	-7811
担心你	-7812
拿出来	-7813
指甲油	-7814
挺喜欢	-7815
接电话	-7816
推荐下	-7817
揪耳朵	-7818
搞笑的	-7819
敌敌畏	-7820
文化的	-7821
斯娱乐	-7822
无所依	-7823
日本人	-7824
早知道	-7825
时你在	-7826
时急着	-7827
明天是	-7828
明明是	-7829
明星的	-7830
是个好	-7831
是哪个	-7832
是对的	-7833
是有多	-7834
晒太阳	-7835
更好了	-7836
曺圭贤	-7837
最需要	-7838
有个你	-7839
有几个	-7840
有意外	-7841
有良知	-7842
某个人	-7843
根本就	-7844
正处于	-7845
此微博	-7846
死人的	-7847
每一分	-7848
每一次	-7849
每一秒	-7850
比他们	-7851
毕业照	-7852
毕业的	-7853
气死了	-7854
泰国菜	-7855
洗衣服	-7856
深圳的	-7857
温馨的	-7858
满足了	-7859
潜规则	-7860
火车票	-7861
火车站	-7862
特别的	-7863
特喜欢	-7864
现在也	-7865
理想型	-7866
理解和	-7867
生命里	-7868
用什么	-7869
电视机	-7870
疯狂了	-7871
的一家	-7872
的一点	-7873
的一部	-7874
的一面	-7875
的事儿	-7876
的冲动	-7877
的动作	-7878
的历史	-7879
的基本	-7880
的天气	-7881
的妈妈	-7882
的姐姐	-7883
的官员	-7884
的宣传	-7885
的时光	-7886
的生命	-7887
的祝福	-7888
的空气	-7889
的红歌	-7890
的花朵	-7891
的车票	-7892
的速度	-7893
的食物	-7894
盆友们	-7895
看出来	-7896
看守所	-7897
看见了	-7898
看过的	-7899
真实的	-7900
真开心	-7901
真是没	-7902
真的要	-7903
睡着了	-7904
神奇的	-7905
移动的	-7906
稳定的	-7907
等待的	-7908
等待着	-7909
简直是	-7910
纠结啊	-7911
结婚吧	-7912
给你的	-7913
给别人	-7914
给宝宝	-7915
给我了	-7916
缓过来	-7917
美好了	-7918
老师说	-7919
而努力	-7920
而是你	-7921
而言之	-7922
聪明的	-7923
股份涨	-7924
能顺利	-7925
脑海里	-7926
自己会	-7927
自己和	-7928
自己没	-7929
自己都	-7930
至少是	-7931
舒服的	-7932
苏丹红	-7933
莫名其	-7934
蒲公英	-7935
被窝里	-7936
被遗弃	-7937
要怎么	-7938
要求的	-7939
要这样	-7940
见到你	-7941
觉得好	-7942
解决的	-7943
诅咒你	-7944
请不要	-7945
谈恋爱	-7946
起码的	-7947
跑出来	-7948
身体好	-7949
转发吧	-7950
转基因	-7951
转起来	-7952
过一个	-7953
过得很	-7954
过生日	-7955
过节啦	-7956
过马路	-7957
运动员	-7958
还不够	-7959
还不如	-7960
还会有	-7961
还好有	-7962
还是个	-7963
还是没	-7964
还是被	-7965
还有点	-7966
还要去	-7967
还要装	-7968
这一刻	-7969
这一天	-7970
这不是	-7971
这么个	-7972
这些年	-7973
这些都	-7974
这是最	-7975
这本书	-7976
这里是	-7977
这里的	-7978
速来袭	-7979
那么好	-7980
那些人	-7981
那几个	-7982
那就是	-7983
都什么	-7984
都木有	-7985
里没有	-7986
陈奕迅	-7987
陌生人	-7988
难道是	-7989
震惊了	-7990
预告片	-7991
饿死了	-7992
高晓松	-7993
麻辣烫	-7994
黄色的	-7995
...)	-7996
?...	-7997
CCAV	-7998
LOGO	-7999
alal	-8000
ammy	-8001
orry	-8002
▁COS	-8003
▁一个个	-8004
▁三个月	-8005
▁不就是	-8006
▁不得不	-8007
▁今天从	-8008
▁但是他	-8009
▁你他妈	-8010
▁你们的	-8011
▁你们都	-8012
▁同学们	-8013
▁哇咔咔	-8014
▁嗷嗷嗷	-8015
▁因为我	-8016
▁在中国	-8017
▁大家好	-8018
▁大家都	-8019
▁奶奶的	-8020
▁好久没	-8021
▁希望能	-8022
▁悲催的	-8023
▁我们在	-8024
▁我们很	-8025
▁我只能	-8026
▁我妈妈	-8027
▁我就是	-8028
▁我有点	-8029
▁我这个	-8030
▁我非常	-8031
▁最讨厌	-8032
▁有人说	-8033
▁祝所有	-8034
▁能不能	-8035
▁范冰冰	-8036
▁药家鑫	-8037
▁蜜糖们	-8038
▁说实话	-8039
▁这句话	-8040
▁这年头	-8041
▁这才是	-8042
▁这是一	-8043
▁那时候	-8044
▁高清版	-8045
、、、、	-8046
一个人时	-8047
一个姑娘	-8048
一个电话	-8049
一个男人	-8050
一个礼拜	-8051
一点也不	-8052
一点都不	-8053
一直以来	-8054
一直都在	-8055
一起加油	-8056
不仅仅是	-8057
不敢相信	-8058
不是为了	-8059
不知不觉	-8060
不顾一切	-8061
东方神起	-8062
丰功伟绩	-8063
为什么你	-8064
义务教育	-8065
也是一种	-8066
了有木有	-8067
交通管制	-8068
人民日报	-8069
今天早上	-8070
从来没有	-8071
代表人民	-8072
以为我是	-8073
传说中的	-8074
你们真好	-8075
你们自己	-8076
你们这些	-8077
你对我的	-8078
你的影子	-8079
做的就是	-8080
克发克发	-8081
全世界最	-8082
其实就是	-8083
内牛满面	-8084
再接再厉	-8085
勒比海盗	-8086
千万不要	-8087
半个小时	-8088
发现自己	-8089
只是一个	-8090
只是不想	-8091
可爱的小	-8092
后洗个澡	-8093
周笔畅的	-8094
和你一起	-8095
和我聊天	-8096
喜欢的事	-8097
因为墓地	-8098
在为过去	-8099
在我心中	-8100
在我心里	-8101
在飞机上	-8102
大学同学	-8103
大家一起	-8104
太可怕了	-8105
太给力了	-8106
太阳的光	-8107
婚纱照吧	-8108
家人朋友	-8109
对自己的	-8110
就可以了	-8111
就是这个	-8112
就是这样	-8113
已经开始	-8114
希望可以	-8115
弱势群体	-8116
当然还有	-8117
很多朋友	-8118
心情大好	-8119
怎么那么	-8120
感受到了	-8121
感谢各位	-8122
感谢所有	-8123
我一定要	-8124
我也觉得	-8125
我们去拍	-8126
我爱的人	-8127
我甩开他	-8128
所有朋友	-8129
打扫卫生	-8130
找回家去	-8131
改革开放	-8132
新的一天	-8133
无言以对	-8134
日本地震	-8135
日本政府	-8136
春暖花开	-8137
是越来越	-8138
曾几何时	-8139
最后一个	-8140
最后一次	-8141
有一点点	-8142
木兰从军	-8143
李宇春的	-8144
根本没有	-8145
欢欣鼓舞	-8146
每一天都	-8147
每次回家	-8148
比比皆是	-8149
永远不会	-8150
永远爱你	-8151
没有任何	-8152
独一无二	-8153
生不如死	-8154
生命中的	-8155
百年歌声	-8156
的同志们	-8157
的小朋友	-8158
的情况下	-8159
的情况是	-8160
的时候还	-8161
的箱子了	-8162
的老百姓	-8163
看到这个	-8164
看着看着	-8165
真的有点	-8166
着最初的	-8167
睡不着了	-8168
知不知道	-8169
联系方式	-8170
自己的心	-8171
航空公司	-8172
让我失望	-8173
让我感动	-8174
谢谢各位	-8175
贪污腐败	-8176
走进科学	-8177
超级超级	-8178
越来越远	-8179
身边的人	-8180
这个名字	-8181
这么多年	-8182
需要一个	-8183
非常喜欢	-8184
食品安全	-8185
(∩_∩)	-8186
,2012	-8187
2011:	-8188
?????	-8189
ebook	-8190
happy	-8191
▁不再有人	-8192
▁什么时候	-8193
▁今天下午	-8194
▁今天是个	-8195
▁今天晚上	-8196
▁今天真是	-8197
▁从此以后	-8198
▁你不知道	-8199
▁希望大家	-8200
▁我不知道	-8201
▁我亲爱的	-8202
▁我们虽然	-8203
▁我勒个去	-8204
▁我有一个	-8205
▁我爱你们	-8206
▁突然发现	-8207
▁艺乐播报	-8208
。。。。[	-8209
一定要幸福	-8210
不知道怎么	-8211
会好起来的	-8212
你怎么还是	-8213
六一儿童节	-8214
别用这蛋疼	-8215
到现在还没	-8216
台都有一个	-8217
属于我们的	-8218
快乐大本营	-8219
怎么看怎么	-8220
思念一个人	-8221
情何以堪啊	-8222
我们更专业	-8223
我该怎么办	-8224
斯娱乐现场	-8225
新闻联播里	-8226
最可怕的是	-8227
最重要的是	-8228
第二个点球	-8229
自己喜欢的	-8230
虽然您不是	-8231
遥远的距离	-8232
!!!!![	-8233
------	-8234
cheese	-8235
iphone	-8236
▁中国的教育	-8237
▁好想有个你	-8238
▁我明明买了	-8239
▁让我们一起	-8240
▁谁能告诉我	-8241
他牵着我的手	-8242
大图火速来袭	-8243
我的无敌老妈	-8244
拍过郑允浩和	-8245
是越来越少了	-8246
的人都知道了	-8247
社会主义国家	-8248
?......	-8249
▁------	-8250
时急着找男朋友	-8251
李宇春生日快乐	-8252
真维斯娱乐现场	-8253
facebook	-8254
————————	-8255
嗷嗷嗷嗷嗷嗷嗷嗷	-8256
我们去拍婚纱照吧	-8257
敢不敢别用这蛋疼	-8258
拍过郑允浩和沈昌珉	-8259
▁高清版大图火速来袭	-8260
!!!!!!!!!!!	-8261
▁啊啊啊啊啊啊啊啊啊啊	-8262
!!!!!!!!!!!!	-8263
敢不敢别用这蛋疼的箱子了	-8264
!!!!!!!!!!!!!!	-8265
▁哈哈哈哈哈哈哈哈哈哈哈哈哈哈	-8266
啊啊啊啊啊啊啊啊啊啊啊啊啊啊啊	-8267
"[	-8268
''	-8269
)〈	-8270
*)	-8271
,7	-8272
,@	-8273
,。	-8274
-:	-8275
.8	-8276
1:	-8277
2.	-8278
33	-8279
47	-8280
48	-8281
49	-8282
65	-8283
7,	-8284
7:	-8285
:&	-8286
:(	-8287
::	-8288
;)	-8289
;[	-8290
AJ	-8291
AQ	-8292
BB	-8293
BG	-8294
CK	-8295
CM	-8296
CO	-8297
CP	-8298
DC	-8299
DJ	-8300
FC	-8301
FM	-8302
GG	-8303
GH	-8304
IL	-8305
IT	-8306
Ju	-8307
KA	-8308
KI	-8309
LD	-8310
LZ	-8311
MM	-8312
MS	-8313
NA	-8314
OK	-8315
OT	-8316
PK	-8317
SI	-8318
SK	-8319
Se	-8320
TD	-8321
TW	-8322
Tu	-8323
VI	-8324
XD	-8325
Yu	-8326
])	-8327
__	-8328
_→	-8329
av	-8330
ba	-8331
ce	-8332
ct	-8333
ff	-8334
ge	-8335
iu	-8336
jb	-8337
me	-8338
na	-8339
ne	-8340
oh	-8341
ut	-8342
vi	-8343
vo	-8344
zh	-8345
zs	-8346
·[	-8347
▁8	-8348
▁h	-8349
▁j	-8350
▁p	-8351
▁★	-8352
▁「	-8353
▁七	-8354
▁临	-8355
▁书	-8356
▁云	-8357
▁以	-8358
▁保	-8359
▁信	-8360
▁偶	-8361
▁初	-8362
▁力	-8363
▁北	-8364
▁南	-8365
▁卡	-8366
▁变	-8367
▁口	-8368
▁台	-8369
▁史	-8370
▁合	-8371
▁咳	-8372
▁唐	-8373
▁囧	-8374
▁国	-8375
▁图	-8376
▁土	-8377
▁坐	-8378
▁声	-8379
▁外	-8380
▁奔	-8381
▁安	-8382
▁实	-8383
▁射	-8384
▁尼	-8385
▁得	-8386
▁微	-8387
▁忍	-8388
▁忙	-8389
▁恨	-8390
▁成	-8391
▁拿	-8392
▁搞	-8393
▁救	-8394
▁整	-8395
▁文	-8396
▁斯	-8397
▁望	-8398
▁朴	-8399
▁机	-8400
▁林	-8401
▁欧	-8402
▁水	-8403
▁潮	-8404
▁烧	-8405
▁然	-8406
▁牛	-8407
▁猛	-8408
▁猪	-8409
▁瑞	-8410
▁男	-8411
▁疼	-8412
▁白	-8413
▁直	-8414
▁福	-8415
▁签	-8416
▁简	-8417
▁累	-8418
▁纯	-8419
▁翻	-8420
▁耶	-8421
▁茜	-8422
▁蛋	-8423
▁血	-8424
▁表	-8425
▁读	-8426
▁起	-8427
▁跑	-8428
▁转	-8429
▁辣	-8430
▁进	-8431
▁造	-8432
▁防	-8433
▁阴	-8434
▁随	-8435
▁青	-8436
▁非	-8437
、[	-8438
。)	-8439
」,	-8440
一举	-8441
一事	-8442
一元	-8443
一到	-8444
一千	-8445
一厘	-8446
一号	-8447
一名	-8448
一向	-8449
一小	-8450
一度	-8451
一想	-8452
一手	-8453
一批	-8454
一提	-8455
一新	-8456
一日	-8457
一月	-8458
一朵	-8459
一游	-8460
一球	-8461
一瓶	-8462
一番	-8463
一盘	-8464
一箭	-8465
一紧	-8466
一级	-8467
一股	-8468
一脚	-8469
一通	-8470
七次	-8471
万千	-8472
万幸	-8473
万般	-8474
三大	-8475
三岁	-8476
三的	-8477
上也	-8478
上千	-8479
上图	-8480
上完	-8481
上就	-8482
上山	-8483
上开	-8484
上我	-8485
上有	-8486
上用	-8487
上瘾	-8488
上街	-8489
上衣	-8490
上说	-8491
上身	-8492
上高	-8493
下吧	-8494
下楼	-8495
下流	-8496
不从	-8497
不作	-8498
不公	-8499
不切	-8500
不利	-8501
不只	-8502
不妨	-8503
不尽	-8504
不应	-8505
不忍	-8506
不忘	-8507
不接	-8508
不散	-8509
不易	-8510
不比	-8511
不溜	-8512
不满	-8513
不烦	-8514
不由	-8515
不眠	-8516
不经	-8517
不肯	-8518
不论	-8519
不谈	-8520
不走	-8521
不适	-8522
不闹	-8523
与世	-8524
与其	-8525
丑陋	-8526
专供	-8527
专场	-8528
专文	-8529
且有	-8530
世间	-8531
业主	-8532
东东	-8533
东北	-8534
东南	-8535
丝丝	-8536
丝带	-8537
两千	-8538
两台	-8539
两大	-8540
两岸	-8541
两根	-8542
两者	-8543
两边	-8544
两集	-8545
丧失	-8546
个够	-8547
个字	-8548
个小	-8549
个毛	-8550
个泡	-8551
中介	-8552
中年	-8553
中考	-8554
中药	-8555
丰盛	-8556
为主	-8557
为其	-8558
为节	-8559
主办	-8560
主题	-8561
举办	-8562
举国	-8563
乃馨	-8564
义工	-8565
义气	-8566
之事	-8567
之于	-8568
之余	-8569
之内	-8570
之地	-8571
之城	-8572
之家	-8573
之风	-8574
乐场	-8575
乐的	-8576
乘机	-8577
九点	-8578
也卖	-8579
也快	-8580
也比	-8581
也流	-8582
也真	-8583
也行	-8584
也请	-8585
买一	-8586
买单	-8587
买卖	-8588
买过	-8589
乱了	-8590
了上	-8591
了又	-8592
了呀	-8593
了眼	-8594
予以	-8595
争议	-8596
事后	-8597
事成	-8598
事没	-8599
二位	-8600
二级	-8601
于我	-8602
五一	-8603
五千	-8604
五彩	-8605
五毛	-8606
井然	-8607
亚纶	-8608
亚麻	-8609
些吧	-8610
交待	-8611
交性	-8612
交换	-8613
交的	-8614
京东	-8615
亮了	-8616
亮化	-8617
亲友	-8618
亲身	-8619
人去	-8620
人又	-8621
人口	-8622
人士	-8623
人寻	-8624
人工	-8625
人数	-8626
人权	-8627
人流	-8628
人海	-8629
人贩	-8630
人静	-8631
什麼	-8632
什麽	-8633
仇恨	-8634
从小	-8635
仔裤	-8636
他个	-8637
他了	-8638
他俩	-8639
他却	-8640
他吧	-8641
他国	-8642
他对	-8643
他没	-8644
他走	-8645
付款	-8646
仙女	-8647
代人	-8648
代夫	-8649
代的	-8650
代购	-8651
以往	-8652
以最	-8653
们也	-8654
们送	-8655
们逼	-8656
们都	-8657
仰望	-8658
任宁	-8659
任性	-8660
份了	-8661
企鹅	-8662
伊朗	-8663
休假	-8664
众生	-8665
优势	-8666
优越	-8667
会去	-8668
会来	-8669
会计	-8670
会说	-8671
伟业	-8672
传媒	-8673
传来	-8674
伤人	-8675
伤员	-8676
伤悲	-8677
伸出	-8678
但在	-8679
但愿	-8680
但最	-8681
位于	-8682
低价	-8683
低估	-8684
低头	-8685
低的	-8686
低落	-8687
低谷	-8688
住宅	-8689
体无	-8690
体检	-8691
体诗	-8692
体谅	-8693
何处	-8694
何止	-8695
余的	-8696
作息	-8697
作痛	-8698
作的	-8699
作风	-8700
你做	-8701
你哦	-8702
你娘	-8703
你开	-8704
你当	-8705
你才	-8706
你把	-8707
你来	-8708
你真	-8709
你该	-8710
你都	-8711
佳片	-8712
佳节	-8713
侄子	-8714
供电	-8715
依据	-8716
保定	-8717
保留	-8718
信系	-8719
信誉	-8720
修炼	-8721
倍儿	-8722
倍的	-8723
倒下	-8724
倒在	-8725
借鉴	-8726
债务	-8727
倾世	-8728
倾家	-8729
假唱	-8730
假如	-8731
假面	-8732
做菜	-8733
做鬼	-8734
停的	-8735
偶的	-8736
偷拍	-8737
僵死	-8738
儿大	-8739
儿盆	-8740
允在	-8741
充足	-8742
先去	-8743
先是	-8744
光是	-8745
光景	-8746
光芒	-8747
兑换	-8748
兑现	-8749
兜兜	-8750
兜售	-8751
入狱	-8752
公公	-8753
公映	-8754
公款	-8755
公道	-8756
六年	-8757
关头	-8758
关押	-8759
具备	-8760
养了	-8761
养活	-8762
养眼	-8763
内普	-8764
内涵	-8765
内裤	-8766
内退	-8767
再吃	-8768
再大	-8769
再好	-8770
再度	-8771
写啊	-8772
写字	-8773
军人	-8774
军训	-8775
农场	-8776
冠的	-8777
冤枉	-8778
冬雨	-8779
冯军	-8780
冰棒	-8781
冰砖	-8782
冲到	-8783
冲走	-8784
冲超	-8785
冷啊	-8786
凉了	-8787
凉粉	-8788
减少	-8789
几人	-8790
几十	-8791
几千	-8792
几名	-8793
几日	-8794
几秒	-8795
凡是	-8796
凤凰	-8797
出來	-8798
出品	-8799
出手	-8800
出生	-8801
出色	-8802
出血	-8803
出道	-8804
出面	-8805
出风	-8806
击垮	-8807
刀郎	-8808
刁民	-8809
分开	-8810
分的	-8811
切切	-8812
初三	-8813
利时	-8814
利特	-8815
别装	-8816
到大	-8817
到头	-8818
到晚	-8819
到暴	-8820
到来	-8821
到此	-8822
制定	-8823
刷卡	-8824
刻骨	-8825
前列	-8826
前进	-8827
前途	-8828
剥削	-8829
剧本	-8830
剪辑	-8831
割舍	-8832
力吧	-8833
办了	-8834
功夫	-8835
加快	-8836
加速	-8837
动人	-8838
动心	-8839
动画	-8840
励将	-8841
劲的	-8842
劳斯	-8843
劳模	-8844
勉强	-8845
勤劳	-8846
匆匆	-8847
化成	-8848
北极	-8849
北美	-8850
十天	-8851
十岁	-8852
午夜	-8853
单子	-8854
单的	-8855
卖出	-8856
博文	-8857
占据	-8858
占有	-8859
占领	-8860
卡拉	-8861
卡通	-8862
卢卡	-8863
卫冕	-8864
危害	-8865
却被	-8866
厂家	-8867
厅堂	-8868
历经	-8869
压根	-8870
压缩	-8871
厌恶	-8872
厘头	-8873
厚道	-8874
原地	-8875
去咯	-8876
去接	-8877
去爱	-8878
参选	-8879
又出	-8880
又去	-8881
又怕	-8882
又想	-8883
又说	-8884
友们	-8885
双手	-8886
双重	-8887
双鱼	-8888
反被	-8889
发亮	-8890
发呆	-8891
发嗲	-8892
发声	-8893
发威	-8894
发放	-8895
发稿	-8896
发行	-8897
发财	-8898
发达	-8899
取得	-8900
取钱	-8901
受害	-8902
口型	-8903
口服	-8904
口牙	-8905
口袋	-8906
古屋	-8907
句号	-8908
只想	-8909
叮嘱	-8910
可儿	-8911
可恶	-8912
可想	-8913
可有	-8914
可用	-8915
可见	-8916
可言	-8917
号称	-8918
叹息	-8919
叹气	-8920
吃一	-8921
吃呢	-8922
吃夜	-8923
吃醋	-8924
吃野	-8925
吃鱼	-8926
各个	-8927
合唱	-8928
合法	-8929
吉祥	-8930
同在	-8931
同居	-8932
同是	-8933
后代	-8934
后台	-8935
后在	-8936
后我	-8937
后盾	-8938
后被	-8939
向你	-8940
向我	-8941
吓到	-8942
否认	-8943
吧唧	-8944
含义	-8945
含蓄	-8946
听过	-8947
吵醒	-8948
吸收	-8949
告知	-8950
呕吧	-8951
周的	-8952
呸呸	-8953
呼唤	-8954
呼小	-8955
命令	-8956
咋地	-8957
咋整	-8958
和一	-8959
和勉	-8960
和自	-8961
咔嚓	-8962
咚咚	-8963
咸菜	-8964
咸蛋	-8965
哀怨	-8966
品尝	-8967
哇哇	-8968
哥啊	-8969
哦耶	-8970
哪找	-8971
哪有	-8972
哲学	-8973
唱了	-8974
商铺	-8975
啥都	-8976
喂狗	-8977
喜剧	-8978
喜感	-8979
喜获	-8980
喝老	-8981
喧嚣	-8982
喷了	-8983
嗯嗯	-8984
嘉欣	-8985
嘴脸	-8986
嚷嚷	-8987
四五	-8988
四次	-8989
四爷	-8990
团聚	-8991
团购	-8992
困惑	-8993
国企	-8994
国土	-8995
国学	-8996
国旗	-8997
国的	-8998
国籍	-8999
国米	-9000
国航	-9001
国足	-9002
图中	-9003
图文	-9004
土匪	-9005
土豆	-9006
圣母	-9007
在于	-9008
在内	-9009
在学	-9010
在水	-9011
在海	-9012
在窗	-9013
在自	-9014
在说	-9015
在饭	-9016
地在	-9017
地理	-9018
地被	-9019
地道	-9020
地里	-9021
地面	-9022
场合	-9023
场景	-9024
均价	-9025
坏话	-9026
坐等	-9027
块的	-9028
坚决	-9029
坚定	-9030
坚实	-9031
坦白	-9032
埃及	-9033
埋在	-9034
城墙	-9035
基亚	-9036
堂皇	-9037
堪入	-9038
堵住	-9039
塑料	-9040
塑造	-9041
塞进	-9042
墙壁	-9043
增多	-9044
处在	-9045
备用	-9046
备降	-9047
复印	-9048
复旦	-9049
夏夏	-9050
外传	-9051
外公	-9052
外有	-9053
多万	-9054
多些	-9055
多元	-9056
多啊	-9057
多有	-9058
多睡	-9059
多谢	-9060
夜夜	-9061
夜娘	-9062
夜深	-9063
夜猫	-9064
够呛	-9065
大卖	-9066
大发	-9067
大地	-9068
大增	-9069
大夫	-9070
大小	-9071
大巴	-9072
大战	-9073
大武	-9074
大河	-9075
大片	-9076
大王	-9077
大白	-9078
大美	-9079
大腿	-9080
大街	-9081
大衣	-9082
大豆	-9083
大过	-9084
大风	-9085
天地	-9086
天才	-9087
天翼	-9088
天都	-9089
太不	-9090
太低	-9091
太原	-9092
太差	-9093
太平	-9094
太热	-9095
太难	-9096
太高	-9097
失心	-9098
失误	-9099
奈何	-9100
奔三	-9101
奔跑	-9102
奖项	-9103
套的	-9104
奢华	-9105
奥运	-9106
奥迪	-9107
女友	-9108
女郎	-9109
她了	-9110
她在	-9111
好些	-9112
好似	-9113
好喝	-9114
好就	-9115
好帅	-9116
好快	-9117
好汉	-9118
好觉	-9119
好让	-9120
好话	-9121
妈咪	-9122
妖孽	-9123
妙玲	-9124
妞的	-9125
妮子	-9126
姆斯	-9127
姊妹	-9128
姐夫	-9129
姑姑	-9130
婊子	-9131
媛媛	-9132
嫁衣	-9133
子弹	-9134
子粽	-9135
子被	-9136
子都	-9137
孔子	-9138
孔明	-9139
存款	-9140
存钱	-9141
孤儿	-9142
学家	-9143
学的	-9144
学费	-9145
它就	-9146
安康	-9147
完后	-9148
完的	-9149
完肤	-9150
宗教	-9151
定会	-9152
宜居	-9153
实力	-9154
实施	-9155
客串	-9156
客场	-9157
室里	-9158
家务	-9159
家园	-9160
家居	-9161
容颜	-9162
密码	-9163
富翁	-9164
寒假	-9165
實在	-9166
对人	-9167
对其	-9168
对吧	-9169
对它	-9170
对手	-9171
封锁	-9172
尊严	-9173
小三	-9174
小丑	-9175
小刀	-9176
小吃	-9177
小啊	-9178
小平	-9179
小店	-9180
小猪	-9181
小编	-9182
小花	-9183
小葱	-9184
少数	-9185
少的	-9186
尖叫	-9187
就为	-9188
就从	-9189
就差	-9190
就想	-9191
就死	-9192
就跟	-9193
尹默	-9194
局的	-9195
层次	-9196
屈辱	-9197
屌丝	-9198
山楂	-9199
巡演	-9200
工人	-9201
工行	-9202
巨蟹	-9203
巨额	-9204
差别	-9205
差劲	-9206
差异	-9207
已在	-9208
已将	-9209
布泉	-9210
帅的	-9211
师姐	-9212
帐号	-9213
帝国	-9214
帝王	-9215
帝都	-9216
带给	-9217
带走	-9218
带领	-9219
帮了	-9220
帮她	-9221
干爹	-9222
平凡	-9223
平民	-9224
平衡	-9225
年啦	-9226
年幼	-9227
年青	-9228
并茂	-9229
幼稚	-9230
广大	-9231
庆功	-9232
床头	-9233
应的	-9234
底的	-9235
度啊	-9236
座位	-9237
座充	-9238
康复	-9239
延续	-9240
延误	-9241
延长	-9242
建立	-9243
开个	-9244
开动	-9245
开朗	-9246
开花	-9247
开路	-9248
异地	-9249
异常	-9250
弄的	-9251
张杰	-9252
弥漫	-9253
强求	-9254
强迫	-9255
归来	-9256
归结	-9257
当下	-9258
当你	-9259
当做	-9260
当前	-9261
录制	-9262
形中	-9263
形态	-9264
形成	-9265
彩虹	-9266
彪悍	-9267
彭彭	-9268
影院	-9269
彷徨	-9270
往后	-9271
征途	-9272
很像	-9273
很忙	-9274
很晚	-9275
很火	-9276
很赞	-9277
很香	-9278
徐州	-9279
得住	-9280
得的	-9281
御姐	-9282
心地	-9283
心头	-9284
心安	-9285
心想	-9286
心机	-9287
心甘	-9288
心病	-9289
心跳	-9290
必有	-9291
必然	-9292
忌惮	-9293
志愿	-9294
忘掉	-9295
忠实	-9296
快女	-9297
快报	-9298
念头	-9299
念念	-9300
怀抱	-9301
怀旧	-9302
怎麼	-9303
怕怕	-9304
思思	-9305
思绪	-9306
思议	-9307
怪事	-9308
怪异	-9309
总量	-9310
恋人	-9311
恐龙	-9312
恩爱	-9313
恭维	-9314
恶人	-9315
恶果	-9316
恶梦	-9317
恶毒	-9318
恶魔	-9319
悄然	-9320
悠哉	-9321
悠闲	-9322
悲愤	-9323
悲痛	-9324
情侣	-9325
情歌	-9326
情节	-9327
惊为	-9328
惋惜	-9329
惨状	-9330
惯了	-9331
想像	-9332
想吐	-9333
想在	-9334
想问	-9335
想骂	-9336
愉悦	-9337
愚人	-9338
愚蠢	-9339
愛你	-9340
感啊	-9341
慈祥	-9342
憧憬	-9343
懂事	-9344
成人	-9345
我买	-9346
我刚	-9347
我吗	-9348
我哦	-9349
我太	-9350
我宝	-9351
我恨	-9352
我手	-9353
我找	-9354
我曾	-9355
我校	-9356
我爸	-9357
我爹	-9358
我自	-9359
我艹	-9360
我葱	-9361
戳戳	-9362
戴个	-9363
房改	-9364
房的	-9365
所为	-9366
所得	-9367
所愿	-9368
所措	-9369
所能	-9370
扇子	-9371
手上	-9372
手中	-9373
手了	-9374
手球	-9375
才了	-9376
才啊	-9377
扑街	-9378
打出	-9379
打呀	-9380
打得	-9381
打折	-9382
打断	-9383
打滚	-9384
扣扣	-9385
扩展	-9386
扫地	-9387
扬州	-9388
扭曲	-9389
扯到	-9390
承载	-9391
技巧	-9392
抄袭	-9393
把小	-9394
把手	-9395
把把	-9396
抑郁	-9397
抓到	-9398
抓紧	-9399
抗日	-9400
折纸	-9401
抚摸	-9402
抢了	-9403
抢钱	-9404
护垫	-9405
护肤	-9406
抵制	-9407
抽空	-9408
抽筋	-9409
拉利	-9410
拉屎	-9411
拉德	-9412
拉蕾	-9413
拍下	-9414
拍拍	-9415
拖到	-9416
招人	-9417
招聘	-9418
挂着	-9419
指导	-9420
指指	-9421
指挥	-9422
挡风	-9423
挥舞	-9424
挺好	-9425
捆绑	-9426
换新	-9427
据说	-9428
排场	-9429
排档	-9430
排除	-9431
排骨	-9432
探讨	-9433
接的	-9434
推出	-9435
推广	-9436
掩盖	-9437
描述	-9438
提倡	-9439
搜索	-9440
搞的	-9441
搞错	-9442
搬家	-9443
摄入	-9444
摆放	-9445
摆脱	-9446
撞撞	-9447
攀比	-9448
收发	-9449
收留	-9450
收钱	-9451
收饭	-9452
改的	-9453
改进	-9454
攻击	-9455
放了	-9456
放开	-9457
放水	-9458
放眼	-9459
放着	-9460
政法	-9461
救了	-9462
救人	-9463
教会	-9464
教导	-9465
教科	-9466
教训	-9467
散了	-9468
敬业	-9469
敬仰	-9470
敬畏	-9471
敬重	-9472
整人	-9473
整形	-9474
整片	-9475
文库	-9476
斜着	-9477
断断	-9478
新疆	-9479
方车	-9480
旅客	-9481
旅程	-9482
旅馆	-9483
无从	-9484
无几	-9485
无可	-9486
无声	-9487
无忧	-9488
无憾	-9489
无效	-9490
无畏	-9491
无疑	-9492
无私	-9493
无须	-9494
既是	-9495
日下	-9496
日出	-9497
日啊	-9498
日志	-9499
日用	-9500
早啊	-9501
早晚	-9502
旱灾	-9503
时工	-9504
时常	-9505
时报	-9506
时空	-9507
明媚	-9508
明月	-9509
映衬	-9510
春运	-9511
春风	-9512
昨夜	-9513
昨日	-9514
是为	-9515
是从	-9516
是哪	-9517
是太	-9518
是小	-9519
是想	-9520
是没	-9521
是爱	-9522
是的	-9523
是野	-9524
晕倒	-9525
晚修	-9526
晚报	-9527
景的	-9528
景色	-9529
智能	-9530
暖气	-9531
暗示	-9532
暴政	-9533
暴躁	-9534
暴风	-9535
更能	-9536
更难	-9537
替代	-9538
最先	-9539
最後	-9540
月中	-9541
月经	-9542
有余	-9543
有学	-9544
有效	-9545
有机	-9546
未果	-9547
未能	-9548
未见	-9549
本质	-9550
本身	-9551
朴实	-9552
机前	-9553
机遇	-9554
杀害	-9555
杂种	-9556
权益	-9557
李子	-9558
条款	-9559
来我	-9560
来来	-9561
来源	-9562
杨澜	-9563
杯的	-9564
杰希	-9565
東西	-9566
板板	-9567
极具	-9568
极品	-9569
极限	-9570
枕头	-9571
林峰	-9572
果而	-9573
枪手	-9574
架势	-9575
柏芝	-9576
柠檬	-9577
柳枝	-9578
标示	-9579
树下	-9580
树的	-9581
校长	-9582
根廷	-9583
格局	-9584
桂林	-9585
桌面	-9586
梦幻	-9587
梨和	-9588
棒子	-9589
森的	-9590
棵树	-9591
椅子	-9592
楼梯	-9593
楼顶	-9594
概率	-9595
概论	-9596
模样	-9597
模糊	-9598
横店	-9599
横扫	-9600
欠缺	-9601
欺压	-9602
歌唱	-9603
歌舞	-9604
歌词	-9605
正太	-9606
正洙	-9607
正的	-9608
此前	-9609
此次	-9610
步伐	-9611
武林	-9612
武艺	-9613
歪歪	-9614
死在	-9615
死掉	-9616
死要	-9617
段子	-9618
毁灭	-9619
每人	-9620
每位	-9621
每周	-9622
每晚	-9623
毒药	-9624
比分	-9625
比起	-9626
毙了	-9627
民警	-9628
气冲	-9629
气的	-9630
水准	-9631
水喝	-9632
水塘	-9633
水晶	-9634
水稻	-9635
永不	-9636
永别	-9637
求职	-9638
汗啊	-9639
汤唯	-9640
沃阁	-9641
沉沉	-9642
沉痛	-9643
沉闷	-9644
沙县	-9645
沙拉	-9646
没敢	-9647
没看	-9648
没长	-9649
沧桑	-9650
油价	-9651
治病	-9652
法学	-9653
法治	-9654
泡沫	-9655
泥石	-9656
注销	-9657
洋气	-9658
洞的	-9659
洪波	-9660
活到	-9661
活法	-9662
活泼	-9663
派对	-9664
流年	-9665
流星	-9666
流连	-9667
测试	-9668
浓的	-9669
浙江	-9670
浩饭	-9671
浮躁	-9672
浴室	-9673
海中	-9674
海外	-9675
海底	-9676
海扁	-9677
消耗	-9678
涵养	-9679
淋巴	-9680
淋淋	-9681
淋漓	-9682
深处	-9683
深情	-9684
深感	-9685
混淆	-9686
添加	-9687
清华	-9688
清醒	-9689
渔船	-9690
渡过	-9691
温哥	-9692
港湾	-9693
游玩	-9694
溃疡	-9695
溫暖	-9696
滑石	-9697
滚出	-9698
滚滚	-9699
滚蛋	-9700
满了	-9701
满眼	-9702
满脸	-9703
滥用	-9704
漆黑	-9705
演绎	-9706
演艺	-9707
漠视	-9708
漩涡	-9709
潮流	-9710
澎湃	-9711
激励	-9712
激烈	-9713
火灾	-9714
火爆	-9715
火腿	-9716
火虫	-9717
灭亡	-9718
灰常	-9719
灰色	-9720
灵灵	-9721
灾害	-9722
点小	-9723
点播	-9724
点过	-9725
烈烈	-9726
烟火	-9727
烟花	-9728
烧香	-9729
热带	-9730
热得	-9731
热血	-9732
焚烧	-9733
焦急	-9734
照照	-9735
照相	-9736
照看	-9737
照着	-9738
熬夜	-9739
爆料	-9740
爬到	-9741
爱到	-9742
爱啊	-9743
爱无	-9744
爱爱	-9745
爸的	-9746
爽了	-9747
牛掰	-9748
牛的	-9749
牢骚	-9750
物管	-9751
物资	-9752
特意	-9753
犀利	-9754
狒狒	-9755
狗官	-9756
狗肉	-9757
独处	-9758
狼狗	-9759
猕猴	-9760
猫咪	-9761
猫猫	-9762
猴子	-9763
王宝	-9764
王小	-9765
王菲	-9766
王道	-9767
玛丽	-9768
玩不	-9769
玩具	-9770
玩到	-9771
玩就	-9772
珍珠	-9773
珍藏	-9774
班级	-9775
班长	-9776
球的	-9777
理我	-9778
理财	-9779
琢磨	-9780
瓜子	-9781
瓦解	-9782
甜蜜	-9783
生平	-9784
生菜	-9785
生长	-9786
用力	-9787
用加	-9788
电子	-9789
电笔	-9790
男士	-9791
男子	-9792
畅通	-9793
界面	-9794
畏惧	-9795
留学	-9796
留恋	-9797
留情	-9798
番茄	-9799
疫苗	-9800
疲劳	-9801
痛不	-9802
痛啊	-9803
痴呆	-9804
登陆	-9805
白白	-9806
白色	-9807
白领	-9808
百分	-9809
百毒	-9810
的两	-9811
的书	-9812
的公	-9813
的分	-9814
的加	-9815
的厚	-9816
的呀	-9817
的四	-9818
的巨	-9819
的干	-9820
的抖	-9821
的死	-9822
的毛	-9823
的破	-9824
的第	-9825
的糖	-9826
的缘	-9827
的脚	-9828
的行	-9829
的语	-9830
的转	-9831
的速	-9832
的酸	-9833
的问	-9834
的队	-9835
的雪	-9836
的青	-9837
皇家	-9838
皇帝	-9839
盈江	-9840
监狱	-9841
监考	-9842
盘子	-9843
目相	-9844
盯着	-9845
相互	-9846
相册	-9847
相差	-9848
相残	-9849
省了	-9850
看书	-9851
看似	-9852
看啊	-9853
看球	-9854
看齐	-9855
真唱	-9856
真够	-9857
真理	-9858
眼光	-9859
着了	-9860
着您	-9861
着脚	-9862
着走	-9863
睡醒	-9864
知名	-9865
知心	-9866
知性	-9867
短短	-9868
矮油	-9869
石化	-9870
石蜡	-9871
码头	-9872
砖头	-9873
破了	-9874
硫磺	-9875
碉堡	-9876
神啊	-9877
福气	-9878
禹哲	-9879
禽兽	-9880
私房	-9881
秋天	-9882
科研	-9883
科都	-9884
租的	-9885
租车	-9886
称之	-9887
称谓	-9888
空了	-9889
空虚	-9890
穿心	-9891
穿梭	-9892
窗户	-9893
立场	-9894
立志	-9895
童心	-9896
童话	-9897
笑笑	-9898
笑脸	-9899
笑语	-9900
笑颜	-9901
笔迷	-9902
笨笨	-9903
笼罩	-9904
等于	-9905
等级	-9906
签了	-9907
篮球	-9908
米们	-9909
米洛	-9910
米线	-9911
米花	-9912
类型	-9913
粉碎	-9914
精了	-9915
精品	-9916
精灵	-9917
糖水	-9918
红桃	-9919
红灯	-9920
红牌	-9921
约束	-9922
级了	-9923
级别	-9924
纪人	-9925
纳了	-9926
纸了	-9927
纺织	-9928
线条	-9929
线的	-9930
练过	-9931
组成	-9932
终成	-9933
结构	-9934
给啊	-9935
统一	-9936
续续	-9937
维多	-9938
综艺	-9939
绿城	-9940
绿灯	-9941
缴费	-9942
缺少	-9943
网了	-9944
网吧	-9945
网购	-9946
网速	-9947
网银	-9948
网页	-9949
罗马	-9950
罢了	-9951
置信	-9952
羊羊	-9953
美元	-9954
美剧	-9955
美图	-9956
美妙	-9957
美得	-9958
美照	-9959
美酒	-9960
美金	-9961
翻身	-9962
老去	-9963
老头	-9964
老姐	-9965
老本	-9966
老的	-9967
老袁	-9968
老郭	-9969
考研	-9970
考证	-9971
而在	-9972
而我	-9973
而知	-9974
耐心	-9975
耳机	-9976
聊得	-9977
聊斋	-9978
聒噪	-9979
肆意	-9980
肆无	-9981
肉桂	-9982
肋骨	-9983
肠胃	-9984
肥皂	-9985
胃口	-9986
胆小	-9987
背叛	-9988
背着	-9989
胖的	-9990
胖胖	-9991
胜负	-9992
胶片	-9993
胸闷	-9994
能做	-9995
能再	-9996
能局	-9997
能让	-9998
脑筋	-9999
脚趾	-10000
腊八	-10001
腐蚀	-10002
腰包	-10003
腰酸	-10004
腼腆	-10005
膨胀	-10006
自个	-10007
自助	-10008
自学	-10009
自尊	-10010
自省	-10011
舜天	-10012
航母	-10013
良好	-10014
节奏	-10015
节省	-10016
芭蕾	-10017
花火	-10018
花落	-10019
花香	-10020
苍苍	-10021
若干	-10022
若是	-10023
茫然	-10024
草地	-10025
草菅	-10026
荡产	-10027
荣誉	-10028
药了	-10029
荷兰	-10030
莉莉	-10031
莱斯	-10032
菜啊	-10033
萌的	-10034
萎疯	-10035
营长	-10036
萨斯	-10037
萱萱	-10038
落后	-10039
落泪	-10040
落马	-10041
蒙古	-10042
虎皮	-10043
虚构	-10044
虫的	-10045
虹桥	-10046
蚂蚁	-10047
蛋白	-10048
蜗居	-10049
融入	-10050
行吗	-10051
行啊	-10052
行驶	-10053
街口	-10054
衡量	-10055
补偿	-10056
补充	-10057
补课	-10058
袋子	-10059
被判	-10060
被叫	-10061
被她	-10062
被捕	-10063
被罚	-10064
被赶	-10065
被起	-10066
被骗	-10067
装备	-10068
西北	-10069
西药	-10070
西藏	-10071
要想	-10072
要把	-10073
要有	-10074
要比	-10075
要的	-10076
要给	-10077
要被	-10078
要逼	-10079
覆去	-10080
观念	-10081
视觉	-10082
觉悟	-10083
解除	-10084
警告	-10085
警方	-10086
计时	-10087
计生	-10088
认定	-10089
让座	-10090
记性	-10091
记起	-10092
讲到	-10093
讲究	-10094
许久	-10095
访谈	-10096
评分	-10097
试用	-10098
试题	-10099
诚信	-10100
诚品	-10101
诚意	-10102
话啊	-10103
话连	-10104
该有	-10105
语录	-10106
误会	-10107
误导	-10108
说事	-10109
说出	-10110
说去	-10111
说吧	-10112
说她	-10113
说来	-10114
说自	-10115
请我	-10116
诸位	-10117
诸多	-10118
读完	-10119
诽谤	-10120
谁了	-10121
谁会	-10122
谁来	-10123
谁比	-10124
谁知	-10125
谁说	-10126
调到	-10127
调整	-10128
调节	-10129
调调	-10130
谈话	-10131
豆浆	-10132
豆瓣	-10133
财政	-10134
财运	-10135
质感	-10136
贪吃	-10137
贴个	-10138
贴了	-10139
贴近	-10140
费和	-10141
赐予	-10142
赔钱	-10143
赛场	-10144
赞赏	-10145
赫宰	-10146
赫本	-10147
走上	-10148
走吧	-10149
走啦	-10150
走廊	-10151
走开	-10152
赶往	-10153
起舞	-10154
起身	-10155
起风	-10156
超强	-10157
超有	-10158
越多	-10159
趟都	-10160
趣味	-10161
足了	-10162
跌跌	-10163
跛课	-10164
跟到	-10165
跟风	-10166
跨年	-10167
跪了	-10168
路况	-10169
跳着	-10170
踏着	-10171
踏青	-10172
踢得	-10173
躺着	-10174
车了	-10175
车道	-10176
车里	-10177
转为	-10178
转转	-10179
轮到	-10180
软的	-10181
轻了	-10182
辛亥	-10183
辛勤	-10184
辛酸	-10185
边境	-10186
边缘	-10187
迅速	-10188
过个	-10189
过完	-10190
过度	-10191
过往	-10192
过期	-10193
运营	-10194
近日	-10195
返回	-10196
还去	-10197
还大	-10198
还很	-10199
这事	-10200
这人	-10201
这儿	-10202
这句	-10203
这支	-10204
这类	-10205
这货	-10206
进化	-10207
进取	-10208
进展	-10209
连成	-10210
连累	-10211
迟暮	-10212
迷人	-10213
迷信	-10214
迷失	-10215
迷恋	-10216
迷离	-10217
迷茫	-10218
退出	-10219
送走	-10220
這樣	-10221
通胀	-10222
通行	-10223
通道	-10224
逛了	-10225
速递	-10226
逼我	-10227
逼着	-10228
道杠	-10229
遥远	-10230
避开	-10231
避风	-10232
還是	-10233
還沒	-10234
邓飞	-10235
那你	-10236
那双	-10237
那张	-10238
那首	-10239
邪恶	-10240
郊区	-10241
郑重	-10242
都买	-10243
都卖	-10244
都吃	-10245
都太	-10246
都市	-10247
都等	-10248
配图	-10249
醉了	-10250
释然	-10251
里约	-10252
重温	-10253
重视	-10254
野蛮	-10255
量多	-10256
量的	-10257
金光	-10258
针对	-10259
钢筋	-10260
钢铁	-10261
钱买	-10262
钱包	-10263
钱吧	-10264
钱啊	-10265
银子	-10266
销量	-10267
错别	-10268
错的	-10269
镜子	-10270
长发	-10271
长途	-10272
门子	-10273
门板	-10274
门票	-10275
闭嘴	-10276
闹木	-10277
闻到	-10278
阜阳	-10279
阶层	-10280
阻止	-10281
阿哲	-10282
阿峰	-10283
阿里	-10284
降临	-10285
院的	-10286
除夕	-10287
随身	-10288
隐私	-10289
隔离	-10290
难免	-10291
难吃	-10292
难忘	-10293
难者	-10294
雀跃	-10295
雄起	-10296
集中	-10297
雕塑	-10298
雖然	-10299
雨衣	-10300
霓虹	-10301
露出	-10302
霸占	-10303
静静	-10304
非洲	-10305
非非	-10306
面临	-10307
面是	-10308
面膜	-10309
面貌	-10310
顶级	-10311
顺啦	-10312
顺手	-10313
顾客	-10314
顾问	-10315
预想	-10316
预览	-10317
领养	-10318
颗心	-10319
颤抖	-10320
风光	-10321
风筝	-10322
飞往	-10323
飞舞	-10324
飞过	-10325
飞速	-10326
餐馆	-10327
饭吃	-10328
饭菜	-10329
首演	-10330
香辣	-10331
马尔	-10332
马诺	-10333
驻足	-10334
驾照	-10335
驾驭	-10336
骂声	-10337
骑着	-10338
骷髅	-10339
高利	-10340
高层	-10341
鱼的	-10342
鲜花	-10343
鸡冻	-10344
鸡巴	-10345
鸡腿	-10346
鸭蛋	-10347
麦当	-10348
黄牛	-10349
黄金	-10350
黑了	-10351
黑帮	-10352
黑白	-10353
黑粉	-10354
黑色	-10355
黑锅	-10356
龙山	-10357
!??	-10358
,08	-10359
,13	-10360
,15	-10361
10.	-10362
104	-10363
105	-10364
114	-10365
140	-10366
145	-10367
160	-10368
170	-10369
199	-10370
201	-10371
210	-10372
346	-10373
430	-10374
555	-10375
613	-10376
7.4	-10377
880	-10378
:13	-10379
?![	-10380
AND	-10381
ANG	-10382
ARA	-10383
App	-10384
COS	-10385
ELF	-10386
GIF	-10387
GPS	-10388
IPO	-10389
JAY	-10390
MIN	-10391
Mac	-10392
QAQ	-10393
SON	-10394
SUP	-10395
TOM	-10396
You	-10397
ach	-10398
age	-10399
als	-10400
ara	-10401
ase	-10402
atm	-10403
ban	-10404
con	-10405
day	-10406
eci	-10407
emo	-10408
eng	-10409
ers	-10410
gzi	-10411
ine	-10412
ink	-10413
ino	-10414
ion	-10415
lee	-10416
lia	-10417
lou	-10418
min	-10419
ord	-10420
orz	-10421
own	-10422
pyt	-10423
uck	-10424
wan	-10425
way	-10426
zon	-10427
~~!	-10428
——《	-10429
→_→	-10430
▁15	-10431
▁18	-10432
▁19	-10433
▁2)	-10434
▁2.	-10435
▁39	-10436
▁:)	-10437
▁=+	-10438
▁HO	-10439
▁TT	-10440
▁an	-10441
▁me	-10442
▁一位	-10443
▁一夜	-10444
▁一天	-10445
▁一次	-10446
▁一觉	-10447
▁下次	-10448
▁下班	-10449
▁不到	-10450
▁不懂	-10451
▁不顾	-10452
▁专家	-10453
▁世界	-10454
▁两个	-10455
▁为啥	-10456
▁五一	-10457
▁人渣	-10458
▁今夜	-10459
▁他的	-10460
▁估计	-10461
▁作业	-10462
▁你个	-10463
▁你太	-10464
▁你妈	-10465
▁你家	-10466
▁你拍	-10467
▁你看	-10468
▁你能	-10469
▁保佑	-10470
▁傻逼	-10471
▁兔年	-10472
▁内心	-10473
▁准备	-10474
▁出来	-10475
▁出门	-10476
▁别在	-10477
▁到底	-10478
▁原來	-10479
▁去年	-10480
▁只为	-10481
▁只因	-10482
▁可怕	-10483
▁可我	-10484
▁吓死	-10485
▁听到	-10486
▁听着	-10487
▁吼吼	-10488
▁呀呀	-10489
▁哪位	-10490
▁哪怕	-10491
▁啊啊	-10492
▁围观	-10493
▁国家	-10494
▁外婆	-10495
▁够了	-10496
▁大学	-10497
▁孩子	-10498
▁巴萨	-10499
▁带着	-10500
▁广州	-10501
▁开始	-10502
▁开心	-10503
▁当今	-10504
▁当我	-10505
▁微博	-10506
▁德国	-10507
▁心中	-10508
▁忘记	-10509
▁想你	-10510
▁想吃	-10511
▁想想	-10512
▁意思	-10513
▁感动	-10514
▁感慨	-10515
▁愤怒	-10516
▁懂得	-10517
▁我和	-10518
▁我太	-10519
▁我怕	-10520
▁我操	-10521
▁我没	-10522
▁我站	-10523
▁我能	-10524
▁房价	-10525
▁抱歉	-10526
▁收到	-10527
▁政府	-10528
▁整理	-10529
▁旁边	-10530
▁无比	-10531
▁时至	-10532
▁明年	-10533
▁明星	-10534
▁是啊	-10535
▁是的	-10536
▁更要	-10537
▁李刚	-10538
▁村民	-10539
▁来了	-10540
▁某些	-10541
▁某人	-10542
▁歌谣	-10543
▁母亲	-10544
▁每一	-10545
▁没事	-10546
▁河南	-10547
▁淘宝	-10548
▁深圳	-10549
▁爷爷	-10550
▁甚至	-10551
▁由于	-10552
▁电信	-10553
▁电影	-10554
▁白天	-10555
▁直到	-10556
▁祈祷	-10557
▁祝贺	-10558
▁私信	-10559
▁经常	-10560
▁羡慕	-10561
▁老妈	-10562
▁节日	-10563
▁表情	-10564
▁表示	-10565
▁认识	-10566
▁说到	-10567
▁赶紧	-10568
▁跟我	-10569
▁身体	-10570
▁还敢	-10571
▁还跟	-10572
▁通过	-10573
▁那天	-10574
▁那就	-10575
▁那是	-10576
▁都新	-10577
▁鄙视	-10578
▁随便	-10579
一下哈	-10580
一个多	-10581
一个字	-10582
一个新	-10583
一件事	-10584
一周年	-10585
一大叔	-10586
一大堆	-10587
一大早	-10588
一家人	-10589
一巴掌	-10590
一年了	-10591
一年后	-10592
一方面	-10593
一晚上	-10594
一本书	-10595
一次次	-10596
一生的	-10597
一百次	-10598
一直没	-10599
一直的	-10600
一系列	-10601
一起上	-10602
一边看	-10603
一遍数	-10604
一鞠躬	-10605
七年的	-10606
三十了	-10607
三明治	-10608
上厕所	-10609
上涨的	-10610
上面的	-10611
下了一	-10612
下半年	-10613
下得了	-10614
下自己	-10615
下面的	-10616
不主张	-10617
不会做	-10618
不会在	-10619
不会是	-10620
不会有	-10621
不停的	-10622
不全呀	-10623
不到了	-10624
不变的	-10625
不回头	-10626
不在乎	-10627
不够用	-10628
不太好	-10629
不存在	-10630
不得瑟	-10631
不愿意	-10632
不懂我	-10633
不成了	-10634
不承认	-10635
不是你	-10636
不是吗	-10637
不是说	-10638
不注意	-10639
不能再	-10640
不能去	-10641
不自在	-10642
不舍得	-10643
不要我	-10644
不要让	-10645
不让我	-10646
不起来	-10647
不过那	-10648
不远了	-10649
不重要	-10650
与我的	-10651
与无奈	-10652
专文凭	-10653
世博会	-10654
世好几	-10655
世界杯	-10656
东西了	-10657
东西啊	-10658
两年了	-10659
个反应	-10660
个月的	-10661
个电话	-10662
中出现	-10663
中国最	-10664
中石化	-10665
中石油	-10666
为人民	-10667
为自己	-10668
久说的	-10669
之后我	-10670
之后的	-10671
乘务员	-10672
也不行	-10673
也只能	-10674
也开始	-10675
也感谢	-10676
也没了	-10677
也算了	-10678
买不到	-10679
了一切	-10680
了一场	-10681
了一块	-10682
了一年	-10683
了一样	-10684
了一眼	-10685
了两个	-10686
了两天	-10687
了之后	-10688
了你也	-10689
了所有	-10690
了这么	-10691
事实上	-10692
于建嵘	-10693
产品的	-10694
产阶级	-10695
亮点了	-10696
人一起	-10697
人类的	-10698
亿元的	-10699
什么也	-10700
什么啊	-10701
今天和	-10702
今天要	-10703
从来不	-10704
他就是	-10705
他自己	-10706
付出了	-10707
以为是	-10708
会怎样	-10709
会计啊	-10710
传说中	-10711
伴我信	-10712
伸出援	-10713
但属于	-10714
但您的	-10715
但看到	-10716
位投票	-10717
低调的	-10718
体育场	-10719
作品中	-10720
你一个	-10721
你们不	-10722
你们去	-10723
你们在	-10724
你们好	-10725
你们就	-10726
你们那	-10727
你依然	-10728
你唱歌	-10729
你在乎	-10730
你幸福	-10731
你快乐	-10732
你懂的	-10733
你是否	-10734
你有吗	-10735
你没有	-10736
你的错	-10737
你给我	-10738
你自己	-10739
你让我	-10740
供电局	-10741
依然会	-10742
便不会	-10743
修好了	-10744
假好人	-10745
做了个	-10746
做噩梦	-10747
做广告	-10748
做生意	-10749
健健康	-10750
健康啊	-10751
像男人	-10752
儿盆儿	-10753
儿童的	-10754
元就能	-10755
充实了	-10756
先生的	-10757
免费的	-10758
全小区	-10759
全球化	-10760
全都是	-10761
公安局	-10762
关心我	-10763
关注了	-10764
其实很	-10765
其实是	-10766
典型的	-10767
再怎么	-10768
冒个泡	-10769
写论文	-10770
农民工	-10771
冰淇淋	-10772
冲动地	-10773
减肥的	-10774
几乎都	-10775
几分钟	-10776
几千万	-10777
几次了	-10778
出来后	-10779
出现了	-10780
出生的	-10781
分手了	-10782
划重点	-10783
判断力	-10784
别以为	-10785
别再打	-10786
别让我	-10787
到今天	-10788
到公司	-10789
到北京	-10790
到我了	-10791
到时候	-10792
到明天	-10793
到这个	-10794
到重庆	-10795
制得成	-10796
刻骨铭	-10797
前两天	-10798
前面的	-10799
力支持	-10800
加油啊	-10801
加起来	-10802
努力了	-10803
努力吧	-10804
化妆品	-10805
北京人	-10806
半决赛	-10807
半夜三	-10808
卫生部	-10809
即便是	-10810
却总是	-10811
却没有	-10812
却还是	-10813
压得成	-10814
原来是	-10815
原生态	-10816
参与者	-10817
又有点	-10818
发微博	-10819
发泄下	-10820
发现后	-10821
另一种	-10822
只有她	-10823
只留下	-10824
可爱啊	-10825
可还是	-10826
吃一顿	-10827
吃东西	-10828
吃夜宵	-10829
吃火锅	-10830
各方面	-10831
合作的	-10832
名古屋	-10833
名字叫	-10834
听不到	-10835
听不见	-10836
听音乐	-10837
吴奇隆	-10838
周年了	-10839
呵呵呵	-10840
和两个	-10841
和信仰	-10842
和几个	-10843
和力量	-10844
和帅哥	-10845
和帮助	-10846
和建议	-10847
和支持	-10848
和花朵	-10849
哥们儿	-10850
哪去了	-10851
商品房	-10852
啊哈哈	-10853
喜欢上	-10854
喜欢她	-10855
喜欢我	-10856
喜爱的	-10857
喝了点	-10858
喝咖啡	-10859
四叶草	-10860
回事儿	-10861
因为她	-10862
因为是	-10863
因为这	-10864
圆满了	-10865
土豆泥	-10866
在上海	-10867
在他们	-10868
在全国	-10869
在公共	-10870
在医院	-10871
在天堂	-10872
在床上	-10873
在微博	-10874
在欧美	-10875
在现场	-10876
在网络	-10877
在门口	-10878
在阳光	-10879
地球了	-10880
地看到	-10881
地铁上	-10882
地铁的	-10883
地震后	-10884
场比赛	-10885
块一碗	-10886
块钱的	-10887
培养的	-10888
基本都	-10889
塑料袋	-10890
声响起	-10891
处女座	-10892
复古的	-10893
夏天的	-10894
外星人	-10895
多吃点	-10896
多大的	-10897
多少年	-10898
大爷的	-10899
大米兰	-10900
大美女	-10901
大鹿岛	-10902
天上掉	-10903
天下的	-10904
太大了	-10905
太平洋	-10906
太简单	-10907
失心疯	-10908
奋斗吧	-10909
奥地利	-10910
奥巴马	-10911
女主播	-10912
女主角	-10913
女人味	-10914
女人啊	-10915
女孩子	-10916
她竟然	-10917
她说我	-10918
好像是	-10919
好几个	-10920
好几天	-10921
好地方	-10922
好好哦	-10923
好想去	-10924
好想吃	-10925
好榜样	-10926
好难过	-10927
如果我	-10928
如此之	-10929
如此的	-10930
妈妈们	-10931
姐们儿	-10932
委员会	-10933
字头上	-10934
孤独的	-10935
孩子在	-10936
完完全	-10937
完美了	-10938
宝贝们	-10939
实际的	-10940
对口型	-10941
将持续	-10942
将自己	-10943
小卡片	-10944
小女孩	-10945
小姑娘	-10946
小孩子	-10947
小家伙	-10948
小本子	-10949
少年时	-10950
尝不是	-10951
就不要	-10952
就好像	-10953
就已经	-10954
就开心	-10955
就是一	-10956
就是对	-10957
就是要	-10958
就离开	-10959
就继续	-10960
屁颠的	-10961
居然没	-10962
居然还	-10963
屠宰场	-10964
山寨版	-10965
差点没	-10966
市实验	-10967
帅气的	-10968
希望我	-10969
带你去	-10970
带我去	-10971
带手机	-10972
带给我	-10973
帮帮我	-10974
干什么	-10975
平平安	-10976
年华里	-10977
年轻了	-10978
幽默感	-10979
应该给	-10980
康乃馨	-10981
廉租房	-10982
开发商	-10983
开始了	-10984
开始的	-10985
开心和	-10986
开推特	-10987
弄丢了	-10988
弟兄们	-10989
张先生	-10990
张照片	-10991
强大的	-10992
当一个	-10993
当初的	-10994
当时就	-10995
影响了	-10996
影响的	-10997
很久没	-10998
很乏味	-10999
很可怕	-11000
很复杂	-11001
很想念	-11002
很棒的	-11003
很欣慰	-11004
很温暖	-11005
很爱你	-11006
很美好	-11007
很舒服	-11008
很讨厌	-11009
很轻松	-11010
得让人	-11011
心满意	-11012
心酸的	-11013
必须得	-11014
忘记了	-11015
怎么好	-11016
怎么没	-11017
怎么走	-11018
怎么都	-11019
怎样啊	-11020
急死了	-11021
总感觉	-11022
总算是	-11023
悲剧了	-11024
悲哀啊	-11025
想出来	-11026
想和你	-11027
想喝老	-11028
想法和	-11029
想象的	-11030
想起了	-11031
意味着	-11032
感觉好	-11033
戏剧节	-11034
成功了	-11035
成就感	-11036
成绩单	-11037
我一定	-11038
我也不	-11039
我也能	-11040
我们吧	-11041
我们爱	-11042
我儿子	-11043
我刚才	-11044
我只有	-11045
我和你	-11046
我好奇	-11047
我好想	-11048
我很好	-11049
我很想	-11050
我心中	-11051
我想去	-11052
我手机	-11053
我渴望	-11054
我滴心	-11055
我爱的	-11056
我的车	-11057
我看了	-11058
我真是	-11059
我要说	-11060
我记得	-11061
我都不	-11062
我都很	-11063
我需要	-11064
戴可儿	-11065
所以我	-11066
手上的	-11067
手术室	-11068
手机号	-11069
才开始	-11070
才明白	-11071
才是我	-11072
才活了	-11073
打卡机	-11074
打开了	-11075
打游戏	-11076
执行力	-11077
找一个	-11078
把人家	-11079
把你的	-11080
抗拒我	-11081
护病房	-11082
抬起头	-11083
抽耳光	-11084
拍马屁	-11085
挤公交	-11086
换了个	-11087
掉一次	-11088
接下来	-11089
摄像机	-11090
支持与	-11091
收藏了	-11092
放出来	-11093
政府公	-11094
教育部	-11095
数信系	-11096
数千万	-11097
整理图	-11098
新专辑	-11099
新年里	-11100
方神起	-11101
旅途中	-11102
无任何	-11103
无厘头	-11104
无尽的	-11105
无意中	-11106
无穷的	-11107
无聊的	-11108
早干嘛	-11109
早起来	-11110
时间去	-11111
明天的	-11112
是一位	-11113
是你的	-11114
是假的	-11115
是国家	-11116
是干嘛	-11117
是必然	-11118
是最后	-11119
是没有	-11120
是要把	-11121
晚自习	-11122
普通人	-11123
更不用	-11124
更猛烈	-11125
最可怕	-11126
最后的	-11127
最性感	-11128
最棒的	-11129
最深的	-11130
最真诚	-11131
最让我	-11132
有一份	-11133
有一百	-11134
有一颗	-11135
有人会	-11136
有人说	-11137
有你们	-11138
有几分	-11139
有必要	-11140
有点不	-11141
有神马	-11142
有资格	-11143
有这样	-11144
有钱给	-11145
期待吧	-11146
期待着	-11147
本以为	-11148
条微博	-11149
来一个	-11150
来北京	-11151
来这里	-11152
杰拉德	-11153
果冻了	-11154
果果们	-11155
某一个	-11156
某一天	-11157
某些人	-11158
桃花运	-11159
检察院	-11160
楼下的	-11161
欢乐谷	-11162
欢快的	-11163
此建议	-11164
步风雨	-11165
死人了	-11166
死你了	-11167
死要活	-11168
母亲的	-11169
每一种	-11170
每天吃	-11171
每年的	-11172
每次都	-11173
比以前	-11174
比我的	-11175
比我还	-11176
比昨天	-11177
比这个	-11178
气的说	-11179
求他们	-11180
沃尔玛	-11181
没心思	-11182
没有人	-11183
没有很	-11184
没用的	-11185
没看到	-11186
没问题	-11187
法拉利	-11188
波尔蒂	-11189
泥石流	-11190
洗完澡	-11191
活活被	-11192
流浪狗	-11193
消失了	-11194
消失的	-11195
消费者	-11196
涉得了	-11197
涨工资	-11198
淘汰了	-11199
淡定了	-11200
淡定的	-11201
深爱的	-11202
清早的	-11203
游乐场	-11204
滑石粉	-11205
满满的	-11206
点什么	-11207
烂皮鞋	-11208
烦不烦	-11209
然而至	-11210
照一张	-11211
爬上来	-11212
爬得了	-11213
爱你们	-11214
爱的人	-11215
爱着你	-11216
爱自己	-11217
父亲节	-11218
父母心	-11219
牌子的	-11220
牛仔裤	-11221
牵着手	-11222
特色的	-11223
狗日的	-11224
狠幸福	-11225
猕猴桃	-11226
玉蒲团	-11227
现在又	-11228
班同学	-11229
理科生	-11230
理解了	-11231
生一个	-11232
生孩子	-11233
生宝宝	-11234
用生命	-11235
由衷地	-11236
电动车	-11237
电脑前	-11238
男主角	-11239
男病人	-11240
男青年	-11241
痛苦了	-11242
白色的	-11243
白花花	-11244
的一段	-11245
的两个	-11246
的人啊	-11247
的代价	-11248
的任务	-11249
的冬天	-11250
的双眼	-11251
的只有	-11252
的可能	-11253
的各位	-11254
的喜悦	-11255
的喜爱	-11256
的图片	-11257
的地铁	-11258
的大雪	-11259
的失落	-11260
的好看	-11261
的婚礼	-11262
的小鸟	-11263
的影响	-11264
的微笑	-11265
的心伤	-11266
的成功	-11267
的报道	-11268
的政府	-11269
的旅行	-11270
的时刻	-11271
的明星	-11272
的是他	-11273
的未来	-11274
的条款	-11275
的演出	-11276
的照顾	-11277
的父母	-11278
的目的	-11279
的相似	-11280
的网络	-11281
的老人	-11282
的老公	-11283
的老子	-11284
的老板	-11285
的观点	-11286
的视角	-11287
的角色	-11288
的解释	-11289
的设计	-11290
的证据	-11291
的话题	-11292
的说法	-11293
的辐射	-11294
的还要	-11295
的这些	-11296
的那位	-11297
的那样	-11298
的鞋子	-11299
的项目	-11300
看一下	-11301
看下去	-11302
看不起	-11303
看你们	-11304
看你的	-11305
看到这	-11306
看新闻	-11307
看的人	-11308
看的我	-11309
看的是	-11310
看着你	-11311
看脸色	-11312
看见你	-11313
真不错	-11314
真好看	-11315
真心的	-11316
真是赚	-11317
眼泪的	-11318
眼看着	-11319
着我们	-11320
睡觉前	-11321
碰上了	-11322
社交性	-11323
社会了	-11324
程度上	-11325
站出来	-11326
笼子里	-11327
等着我	-11328
类型的	-11329
精彩的	-11330
系列的	-11331
素颜照	-11332
纠结了	-11333
红火的	-11334
红领巾	-11335
纳税人	-11336
终于和	-11337
终于有	-11338
经纪人	-11339
结婚了	-11340
结果却	-11341
结果是	-11342
给一个	-11343
给我回	-11344
给我滚	-11345
绝不能	-11346
综合体	-11347
美美的	-11348
老娘充	-11349
老朋友	-11350
老男人	-11351
而不为	-11352
而是我	-11353
而来的	-11354
耐心的	-11355
能让你	-11356
脖子上	-11357
腰酸背	-11358
自己了	-11359
自己去	-11360
自己在	-11361
自己有	-11362
自由的	-11363
臭豆腐	-11364
良好的	-11365
节日里	-11366
节目的	-11367
苹果的	-11368
范围内	-11369
莫过于	-11370
萤火虫	-11371
营长廊	-11372
著名的	-11373
董事长	-11374
衣服时	-11375
被打击	-11376
被拍的	-11377
被起诉	-11378
西湖边	-11379
要上映	-11380
要不然	-11381
要注意	-11382
要疯了	-11383
见不到	-11384
见我们	-11385
视频后	-11386
觉得挺	-11387
解放碑	-11388
认出来	-11389
让你再	-11390
让你的	-11391
让所有	-11392
让生活	-11393
让领导	-11394
记者们	-11395
话说我	-11396
话连篇	-11397
诱人的	-11398
说一下	-11399
说一句	-11400
说自己	-11401
说这话	-11402
诺基亚	-11403
诺木有	-11404
谁知道	-11405
谁谁谁	-11406
谢谢我	-11407
负责人	-11408
贡献率	-11409
贱骨头	-11410
资本家	-11411
赞一下	-11412
赤裸裸	-11413
走到了	-11414
起来的	-11415
超喜欢	-11416
趟都碰	-11417
足以让	-11418
跟你们	-11419
跟大家	-11420
跟我们	-11421
身上的	-11422
身份证	-11423
转嫁给	-11424
轮回转	-11425
辽宁省	-11426
过之后	-11427
过几天	-11428
过分了	-11429
过日子	-11430
过来说	-11431
过程中	-11432
还不得	-11433
还不是	-11434
还不能	-11435
还有个	-11436
还有人	-11437
还有最	-11438
还有这	-11439
还没到	-11440
这一点	-11441
这么自	-11442
这事儿	-11443
这件事	-11444
这几年	-11445
这只是	-11446
这孩子	-11447
这张图	-11448
这感觉	-11449
这时候	-11450
这是个	-11451
这样了	-11452
这样你	-11453
这种人	-11454
进球了	-11455
连续剧	-11456
退役了	-11457
送给我	-11458
造成了	-11459
造成的	-11460
遇见你	-11461
避风港	-11462
那一天	-11463
那不是	-11464
那个谁	-11465
那么久	-11466
那么大	-11467
那么有	-11468
那我也	-11469
那时候	-11470
那里的	-11471
邪恶的	-11472
都不在	-11473
都不如	-11474
都不算	-11475
都不行	-11476
都不要	-11477
都变成	-11478
都可能	-11479
都是在	-11480
都没得	-11481
都没用	-11482
都能去	-11483
都花了	-11484
都证明	-11485
酸奶了	-11486
里全是	-11487
里拿着	-11488
里面夹	-11489
重庆的	-11490
重点是	-11491
钱云会	-11492
长长的	-11493
闭上眼	-11494
问题是	-11495
阿根廷	-11496
陌生的	-11497
陪着我	-11498
陪老妈	-11499
难得的	-11500
青春期	-11501
靠自己	-11502
韩国的	-11503
音乐的	-11504
顺利利	-11505
顺利的	-11506
食用油	-11507
饭们逼	-11508
马克笔	-11509
马路上	-11510
驾驶员	-11511
高兴了	-11512
高兴的	-11513
高考的	-11514
高高兴	-11515
魅力的	-11516
鸽子了	-11517
麦子粽	-11518
黑社会	-11519
默默在	-11520
)...	-11521
,,,,	-11522
,100	-11523
,300	-11524
,600	-11525
-_-)	-11526
2001	-11527
6201	-11528
?!!!	-11529
ANTI	-11530
HIGH	-11531
HOLD	-11532
]//@	-11533
amin	-11534
aron	-11535
benj	-11536
hold	-11537
iele	-11538
ight	-11539
khun	-11540
live	-11541
peed	-11542
roid	-11543
sama	-11544
unes	-11545
wifi	-11546
zhai	-11547
▁---	-11548
▁100	-11549
▁Fox	-11550
▁OMG	-11551
▁TMD	-11552
▁and	-11553
▁一个月	-11554
▁一定会	-11555
▁不逃避	-11556
▁也就是	-11557
▁什么叫	-11558
▁今天又	-11559
▁今天陪	-11560
▁他们的	-11561
▁但现在	-11562
▁你不懂	-11563
▁你妹啊	-11564
▁你知道	-11565
▁你让我	-11566
▁公交车	-11567
▁到底是	-11568
▁前两天	-11569
▁前几天	-11570
▁原来是	-11571
▁可现在	-11572
▁同样是	-11573
▁后来我	-11574
▁呜呜呜	-11575
▁周笔畅	-11576
▁唯一的	-11577
▁啊啊啊	-11578
▁在每个	-11579
▁坑爹啊	-11580
▁宝贝儿	-11581
▁家里的	-11582
▁对一个	-11583
▁就喜欢	-11584
▁就这么	-11585
▁希望你	-11586
▁很喜欢	-11587
▁很多人	-11588
▁我今天	-11589
▁我决定	-11590
▁我发誓	-11591
▁我可以	-11592
▁我希望	-11593
▁我想我	-11594
▁我愿意	-11595
▁我把最	-11596
▁我曾经	-11597
▁我特么	-11598
▁我的天	-11599
▁我真想	-11600
▁我终于	-11601
▁我错了	-11602
▁所以我	-11603
▁接下来	-11604
▁敢不敢	-11605
▁明天的	-11606
▁最后的	-11607
▁有些人	-11608
▁杯具了	-11609
▁母亲节	-11610
▁求浩珉	-11611
▁然后再	-11612
▁然后我	-11613
▁瘦肉精	-11614
▁真是太	-11615
▁真羡慕	-11616
▁祝各位	-11617
▁童鞋们	-11618
▁第三个	-11619
▁第二天	-11620
▁终于有	-11621
▁虽然我	-11622
▁要不要	-11623
▁要死了	-11624
▁说真的	-11625
▁越来越	-11626
▁辛苦了	-11627
▁还记得	-11628
▁这世道	-11629
▁这也是	-11630
▁这是个	-11631
▁这里的	-11632
▁那么多	-11633
▁难道我	-11634
。。。!	-11635
一个人了	-11636
一个人在	-11637
一个城市	-11638
一个孩子	-11639
一切都好	-11640
一切顺利	-11641
一提的是	-11642
一无所有	-11643
一模一样	-11644
一段时间	-11645
一点点的	-11646
一生平安	-11647
一直没有	-11648
一箭穿心	-11649
三分之一	-11650
三聚氰胺	-11651
上了一个	-11652
上的每个	-11653
上的皱纹	-11654
不一样的	-11655
不仅文化	-11656
不可思议	-11657
不想看到	-11658
不敢爱你	-11659
不是一般	-11660
不是人的	-11661
不知所措	-11662
不知道在	-11663
不知道是	-11664
不要脸的	-11665
不要这样	-11666
不负责任	-11667
不起来了	-11668
与众不同	-11669
世界各地	-11670
世界末日	-11671
两个小时	-11672
两会期间	-11673
中国国家	-11674
中央政府	-11675
为什么呢	-11676
也不在乎	-11677
也是这样	-11678
了一个很	-11679
了一句话	-11680
了好几个	-11681
了那么多	-11682
亏亏亏亏	-11683
交通事故	-11684
亮化工程	-11685
人的感觉	-11686
什么事情	-11687
什么叫做	-11688
什么的最	-11689
什么程度	-11690
今天中午	-11691
今天心情	-11692
从来不说	-11693
但是现在	-11694
但是还是	-11695
体无完肤	-11696
你不懂我	-11697
你他妈的	-11698
你们这帮	-11699
你的世界	-11700
你的努力	-11701
你的名字	-11702
你的消息	-11703
你还记得	-11704
依然需要	-11705
保卫黄河	-11706
保护我们	-11707
值得期待	-11708
倾家荡产	-11709
做了母亲	-11710
做的事情	-11711
健健康康	-11712
像我一样	-11713
元旦快乐	-11714
全国人民	-11715
全球时尚	-11716
公司居然	-11717
关怀和勉	-11718
关注教材	-11719
关门大吉	-11720
其实我们	-11721
到处都是	-11722
到底在哪	-11723
到底是个	-11724
办公室里	-11725
北京时间	-11726
十分钟后	-11727
卫冕冠军	-11728
却不知道	-11729
却让太多	-11730
却让很多	-11731
压力很大	-11732
又怎么样	-11733
又要开始	-11734
反应过来	-11735
发个微博	-11736
变得卑微	-11737
只是偶尔	-11738
可以这样	-11739
可想而知	-11740
司机大哥	-11741
吃喝玩乐	-11742
各种笑的	-11743
告诉我们	-11744
周末愉快	-11745
哈尼兔耶	-11746
哪里去了	-11747
哭笑不得	-11748
回不去了	-11749
回味无穷	-11750
回眸一笑	-11751
因为他们	-11752
因为我们	-11753
因为没有	-11754
因为这样	-11755
团结起来	-11756
国家形象	-11757
圆通速递	-11758
在一起的	-11759
在人行道	-11760
在你身后	-11761
在北京的	-11762
在我身上	-11763
在电视上	-11764
在这样的	-11765
地下停车	-11766
培训项目	-11767
基本没有	-11768
夜深人静	-11769
够了每天	-11770
大家加油	-11771
大家都在	-11772
天天上课	-11773
太可怜了	-11774
太好笑了	-11775
太恶心了	-11776
太有杀伤	-11777
太有爱了	-11778
女性用品	-11779
好好享受	-11780
好好休息	-11781
好好学习	-11782
好热闹啊	-11783
好的时候	-11784
如果可以	-11785
学习时间	-11786
安徽阜阳	-11787
完全可以	-11788
完成这些	-11789
完美无瑕	-11790
官方微博	-11791
宣传部长	-11792
宿舍楼下	-11793
对你们的	-11794
对我们的	-11795
对我来说	-11796
小孩子的	-11797
少了一个	-11798
就在那里	-11799
就是你们	-11800
就是因为	-11801
就是我们	-11802
就知道了	-11803
就让你们	-11804
尼玛尼玛	-11805
居然可以	-11806
岁月已将	-11807
岁的生日	-11808
希望你们	-11809
带给大家	-11810
带给我们	-11811
并将长期	-11812
幸福快乐	-11813
当地政府	-11814
得不得了	-11815
得了厅堂	-11816
得以采纳	-11817
念念不忘	-11818
怎么办啊	-11819
怎么回事	-11820
思念有多	-11821
性感细节	-11822
总是记住	-11823
恢复正常	-11824
恭喜恭喜	-11825
您的青春	-11826
想说一句	-11827
意味着我	-11828
感冒要吃	-11829
感觉有点	-11830
我一个人	-11831
我一定会	-11832
我不怪你	-11833
我们发现	-11834
我们可以	-11835
我们就是	-11836
我会一直	-11837
我会尽力	-11838
我可怜的	-11839
我和我的	-11840
我喜欢你	-11841
我改变了	-11842
我是有多	-11843
我最喜欢	-11844
我爱你们	-11845
我爱我的	-11846
我的世界	-11847
我的偶像	-11848
我的存在	-11849
我的心里	-11850
我的眼睛	-11851
我还在想	-11852
所有人都	-11853
手机上网	-11854
打开微博	-11855
打电话来	-11856
打酱油的	-11857
批评中国	-11858
把我埋在	-11859
把自己的	-11860
拍照留念	-11861
指指点点	-11862
掉线掉线	-11863
接受不了	-11864
推特更新	-11865
提醒自己	-11866
支持我的	-11867
放在心里	-11868
教育了他	-11869
教育改革	-11870
文字游戏	-11871
断断续续	-11872
早睡早起	-11873
是一样的	-11874
是不是有	-11875
是不是要	-11876
是不是该	-11877
是如此的	-11878
是张泰瑞	-11879
是怎样的	-11880
普遍欠缺	-11881
智能手机	-11882
更多的人	-11883
更多的是	-11884
最后一段	-11885
最后终于	-11886
最新消息	-11887
最高人民	-11888
有人喜欢	-11889
有多辛苦	-11890
有木有啊	-11891
有的只是	-11892
有自己的	-11893
本来就不	-11894
杀伤力的	-11895
梦想成真	-11896
欢迎大家	-11897
每个角落	-11898
每天晚上	-11899
比我们的	-11900
永不分手	-11901
沃阁酒店	-11902
没事找事	-11903
没有回应	-11904
没有孩子	-11905
注意安全	-11906
活活把人	-11907
淑女范儿	-11908
演唱会的	-11909
爱心传递	-11910
现在想想	-11911
现在还在	-11912
现在这样	-11913
现场直播	-11914
甚至没有	-11915
生日祝福	-11916
用的时候	-11917
男女平等	-11918
留给我的	-11919
痛苦的是	-11920
白发苍苍	-11921
白头偕老	-11922
百度文库	-11923
的一瞬间	-11924
的好心人	-11925
的孩子们	-11926
的小盆友	-11927
的感觉了	-11928
的有没有	-11929
的朴有天	-11930
的那一个	-11931
的那一刻	-11932
的那一天	-11933
的那些人	-11934
相关部门	-11935
看到一个	-11936
看到一只	-11937
看到你们	-11938
真是令人	-11939
真的是很	-11940
睡个好觉	-11941
祝福各位	-11942
秩序井然	-11943
穿上婚纱	-11944
纳了闷了	-11945
经济学家	-11946
给大家看	-11947
绝大多数	-11948
统计数据	-11949
维多利亚	-11950
网上审核	-11951
翩翩起舞	-11952
翻来覆去	-11953
而且还是	-11954
聊天记录	-11955
职业道德	-11956
肆无忌惮	-11957
脸红自爆	-11958
自己的人	-11959
草莓蛋糕	-11960
莫名其妙	-11961
行不行啊	-11962
见到你们	-11963
觉得有点	-11964
警营长廊	-11965
计划生育	-11966
让我感到	-11967
让我懂得	-11968
让我觉得	-11969
说对不起	-11970
越来越好	-11971
越来越没	-11972
跌跌撞撞	-11973
轰轰烈烈	-11974
过段时间	-11975
还不让我	-11976
还是我们	-11977
还有什么	-11978
还有哪个	-11979
还有很多	-11980
还要继续	-11981
这下倒好	-11982
这个国家	-11983
这个女人	-11984
这个数字	-11985
这个行业	-11986
,	-11987
▁	-11988
的	-11989
!	-11990
我	-11991
。	-11992
了	-11993
.	-11994
是	-11995
不	-11996
一	-11997
[	-11998
]	-11999
有	-12000
你	-12001
人	-12002
这	-12003
在	-12004
个	-12005
~	-12006
好	-12007
啊	-12008
们	-12009
就	-12010
大	-12011
天	-12012
到	-12013
来	-12014
么	-12015
?	-12016
心	-12017
哈	-12018
上	-12019
都	-12020
要	-12021
看	-12022
还	-12023
没	-12024
为	-12025
家	-12026
很	-12027
可	-12028
多	-12029
那	-12030
子	-12031
也	-12032
会	-12033
说	-12034
时	-12035
真	-12036
他	-12037
去	-12038
得	-12039
想	-12040
爱	-12041
过	-12042
下	-12043
0	-12044
中	-12045
:	-12046
能	-12047
自	-12048
着	-12049
以	-12050
生	-12051
小	-12052
和	-12053
年	-12054
然	-12055
出	-12056
、	-12057
后	-12058
感	-12059
开	-12060
1	-12061
国	-12062
里	-12063
最	-12064
现	-12065
给	-12066
起	-12067
发	-12068
老	-12069
今	-12070
样	-12071
道	-12072
地	-12073
点	-12074
对	-12075
太	-12076
;	-12077
事	-12078
无	-12079
让	-12080
只	-12081
己	-12082
日	-12083
美	-12084
吃	-12085
情	-12086
回	-12087
觉	-12088
2	-12089
吧	-12090
什	-12091
快	-12092
用	-12093
/	-12094
谢	-12095
学	-12096
o	-12097
又	-12098
被	-12099
@	-12100
力	-12101
成	-12102
知	-12103
明	-12104
乐	-12105
a	-12106
喜	-12107
如	-12108
做	-12109
T	-12110
面	-12111
5	-12112
欢	-12113
但	-12114
女	-12115
话	-12116
电	-12117
笑	-12118
e	-12119
些	-12120
实	-12121
泪	-12122
次	-12123
本	-12124
动	-12125
当	-12126
妈	-12127
意	-12128
儿	-12129
把	-12130
前	-12131
死	-12132
而	-12133
果	-12134
手	-12135
所	-12136
再	-12137
经	-12138
高	-12139
打	-12140
作	-12141
·	-12142
机	-12143
种	-12144
车	-12145
于	-12146
全	-12147
她	-12148
同	-12149
新	-12150
别	-12151
怎	-12152
分	-12153
候	-12154
晚	-12155
之	-12156
场	-12157
花	-12158
行	-12159
几	-12160
望	-12161
头	-12162
加	-12163
公	-12164
定	-12165
-	-12166
更	-12167
身	-12168
亲	-12169
长	-12170
相	-12171
节	-12172
3	-12173
三	-12174
)	-12175
才	-12176
因	-12177
友	-12178
月	-12179
直	-12180
每	-12181
比	-12182
哥	-12183
i	-12184
完	-12185
见	-12186
安	-12187
信	-12188
从	-12189
两	-12190
已	-12191
气	-12192
活	-12193
吗	-12194
(	-12195
n	-12196
福	-12197
间	-12198
特	-12199
方	-12200
走	-12201
其	-12202
结	-12203
眼	-12204
此	-12205
呢	-12206
放	-12207
法	-12208
理	-12209
t	-12210
外	-12211
民	-12212
路	-12213
工	-12214
体	-12215
早	-12216
位	-12217
关	-12218
神	-12219
难	-12220
马	-12221
希	-12222
水	-12223
重	-12224
张	-12225
西	-12226
越	-12227
片	-12228
祝	-12229
等	-12230
问	-12231
啦	-12232
宝	-12233
表	-12234
业	-12235
伤	-12236
刚	-12237
孩	-12238
m	-12239
海	-12240
少	-12241
视	-12242
男	-12243
听	-12244
总	-12245
跟	-12246
十	-12247
油	-12248
各	-12249
钱	-12250
狂	-12251
该	-12252
买	-12253
第	-12254
常	-12255
找	-12256
像	-12257
带	-12258
S	-12259
受	-12260
微	-12261
照	-12262
光	-12263
正	-12264
白	-12265
期	-12266
M	-12267
收	-12268
幸	-12269
文	-12270
应	-12271
东	-12272
饭	-12273
边	-12274
主	-12275
影	-12276
错	-12277
4	-12278
8	-12279
呵	-12280
远	-12281
p	-12282
睡	-12283
记	-12284
万	-12285
朋	-12286
考	-12287
l	-12288
世	-12289
师	-12290
干	-12291
s	-12292
持	-12293
与	-12294
却	-12295
部	-12296
台	-12297
利	-12298
名	-12299
强	-12300
抓	-12301
演	-12302
门	-12303
》	-12304
二	-12305
叫	-12306
—	-12307
度	-12308
《	-12309
嘻	-12310
进	-12311
图	-12312
非	-12313
平	-12314
通	-12315
何	-12316
者	-12317
蛋	-12318
风	-12319
口	-12320
姐	-12321
品	-12322
r	-12323
思	-12324
合	-12325
物	-12326
终	-12327
偷	-12328
始	-12329
u	-12330
红	-12331
接	-12332
玩	-12333
原	-12334
哦	-12335
谁	-12336
北	-12337
怒	-12338
周	-12339
待	-12340
教	-12341
价	-12342
拍	-12343
O	-12344
球	-12345
界	-12346
请	-12347
6	-12348
9	-12349
连	-12350
哪	-12351
歌	-12352
满	-12353
百	-12354
网	-12355
惊	-12356
服	-12357
木	-12358
色	-12359
D	-12360
内	-12361
住	-12362
变	-12363
算	-12364
博	-12365
京	-12366
化	-12367
近	-12368
A	-12369
员	-12370
市	-12371
怕	-12372
解	-12373
超	-12374
单	-12375
将	-12376
房	-12377
痛	-12378
唱	-12379
声	-12380
复	-12381
敢	-12382
目	-12383
g	-12384
代	-12385
夜	-12386
性	-12387
班	-12388
愿	-12389
7	-12390
害	-12391
清	-12392
转	-12393
h	-12394
呀	-12395
失	-12396
流	-12397
～	-12398
星	-12399
午	-12400
居	-12401
题	-12402
苦	-12403
反	-12404
空	-12405
d	-12406
P	-12407
管	-12408
包	-12409
续	-12410
便	-12411
金	-12412
号	-12413
尼	-12414
整	-12415
火	-12416
C	-12417
保	-12418
半	-12419
阿	-12420
南	-12421
命	-12422
母	-12423
深	-12424
先	-12425
昨	-12426
认	-12427
c	-12428
切	-12429
味	-12430
哭	-12431
离	-12432
飞	-12433
字	-12434
书	-12435
四	-12436
报	-12437
烦	-12438
虽	-12439
黑	-12440
N	-12441
它	-12442
I	-12443
底	-12444
任	-12445
办	-12446
处	-12447
念	-12448
脸	-12449
至	-12450
鼓	-12451
写	-12452
永	-12453
告	-12454
数	-12455
论	-12456
制	-12457
拿	-12458
注	-12459
够	-12460
竟	-12461
量	-12462
=	-12463
消	-12464
支	-12465
计	-12466
B	-12467
y	-12468
帮	-12469
条	-12470
狗	-12471
五	-12472
求	-12473
改	-12474
温	-12475
向	-12476
息	-12477
资	-12478
岁	-12479
阳	-12480
交	-12481
导	-12482
政	-12483
梦	-12484
队	-12485
音	-12486
司	-12487
掌	-12488
费	-12489
容	-12490
传	-12491
城	-12492
山	-12493
拉	-12494
热	-12495
精	-12496
脑	-12497
装	-12498
言	-12499
久	-12500
假	-12501
或	-12502
某	-12503
语	-12504
妹	-12505
春	-12506
毛	-12507
突	-12508
米	-12509
尽	-12510
滴	-12511
留	-12512
级	-12513
肉	-12514
送	-12515
亮	-12516
客	-12517
搞	-12518
游	-12519
病	-12520
站	-12521
绝	-12522
兴	-12523
并	-12524
戏	-12525
提	-12526
李	-12527
玛	-12528
入	-12529
句	-12530
您	-12531
悲	-12532
掉	-12533
礼	-12534
穿	-12535
产	-12536
王	-12537
许	-12538
喝	-12539
广	-12540
运	-12541
院	-12542
且	-12543
落	-12544
观	-12545
剧	-12546
围	-12547
足	-12548
习	-12549
件	-12550
卡	-12551
奶	-12552
线	-12553
G	-12554
校	-12555
六	-12556
糕	-12557
系	-12558
顺	-12559
使	-12560
州	-12561
必	-12562
护	-12563
未	-12564
牛	-12565
衣	-12566
领	-12567
试	-12568
赛	-12569
酒	-12570
随	-12571
停	-12572
爸	-12573
质	-12574
逼	-12575
V	-12576
奥	-12577
态	-12578
恶	-12579
播	-12580
社	-12581
讨	-12582
象	-12583
务	-12584
菜	-12585
遇	-12586
需	-12587
靠	-12588
L	-12589
元	-12590
华	-12591
建	-12592
暖	-12593
童	-12594
首	-12595
值	-12596
养	-12597
坐	-12598
香	-12599
八	-12600
团	-12601
差	-12602
舞	-12603
迷	-12604
青	-12605
即	-12606
店	-12607
血	-12608
依	-12609
继	-12610
刻	-12611
医	-12612
坚	-12613
往	-12614
恨	-12615
格	-12616
涨	-12617
简	-12618
调	-12619
康	-12620
怜	-12621
懂	-12622
轻	-12623
辛	-12624
选	-12625
b	-12626
功	-12627
巴	-12628
帅	-12629
弟	-12630
志	-12631
忘	-12632
杀	-12633
画	-12634
证	-12635
卖	-12636
由	-12637
粉	-12638
育	-12639
E	-12640
专	-12641
娘	-12642
麻	-12643
默	-12644
奇	-12645
英	-12646
份	-12647
似	-12648
商	-12649
嘿	-12650
官	-12651
抱	-12652
程	-12653
达	-12654
鞋	-12655
"	-12656
嘛	-12657
极	-12658
立	-12659
累	-12660
群	-12661
识	-12662
造	-12663
云	-12664
准	-12665
及	-12666
根	-12667
段	-12668
贵	-12669
钟	-12670
乎	-12671
众	-12672
偶	-12673
冷	-12674
排	-12675
步	-12676
洗	-12677
诉	-12678
赞	-12679
醒	-12680
雨	-12681
食	-12682
丝	-12683
义	-12684
嘴	-12685
示	-12686
骂	-12687
&	-12688
婚	-12689
存	-12690
指	-12691
艺	-12692
倒	-12693
哎	-12694
型	-12695
德	-12696
推	-12697
救	-12698
曾	-12699
聊	-12700
低	-12701
冰	-12702
皮	-12703
票	-12704
除	-12705
陪	-12706
Y	-12707
^	-12708
局	-12709
战	-12710
牌	-12711
黄	-12712
H	-12713
K	-12714
_	-12715
努	-12716
千	-12717
压	-12718
备	-12719
式	-12720
挺	-12721
换	-12722
故	-12723
权	-12724
杯	-12725
笔	-12726
军	-12727
断	-12728
斯	-12729
丽	-12730
历	-12731
啥	-12732
委	-12733
庆	-12734
形	-12735
忙	-12736
怪	-12737
疯	-12738
维	-12739
乱	-12740
健	-12741
双	-12742
哇	-12743
翻	-12744
静	-12745
J	-12746
k	-12747
享	-12748
傻	-12749
决	-12750
取	-12751
唯	-12752
府	-12753
浪	-12754
激	-12755
疼	-12756
街	-12757
角	-12758
q	-12759
哼	-12760
易	-12761
曼	-12762
楼	-12763
武	-12764
爷	-12765
类	-12766
脚	-12767
跑	-12768
韩	-12769
充	-12770
忆	-12771
怀	-12772
景	-12773
紧	-12774
厌	-12775
基	-12776
套	-12777
户	-12778
联	-12779
赶	-12780
亚	-12781
忍	-12782
旅	-12783
板	-12784
江	-12785
科	-12786
纸	-12787
设	-12788
震	-12789
X	-12790
共	-12791
具	-12792
参	-12793
慢	-12794
秀	-12795
羞	-12796
警	-12797
区	-12798
室	-12799
尔	-12800
术	-12801
短	-12802
确	-12803
素	-12804
药	-12805
速	-12806
配	-12807
晕	-12808
草	-12809
货	-12810
农	-12811
初	-12812
坏	-12813
块	-12814
布	-12815
款	-12816
破	-12817
统	-12818
评	-12819
读	-12820
园	-12821
彩	-12822
残	-12823
汗	-12824
爽	-12825
兔	-12826
卫	-12827
姓	-12828
案	-12829
课	-12830
雪	-12831
助	-12832
弄	-12833
效	-12834
讲	-12835
F	-12836
创	-12837
屎	-12838
惜	-12839
显	-12840
止	-12841
淡	-12842
w	-12843
令	-12844
史	-12845
床	-12846
旧	-12847
致	-12848
另	-12849
否	-12850
呼	-12851
响	-12852
夏	-12853
屁	-12854
爹	-12855
耶	-12856
谈	-12857
闹	-12858
R	-12859
折	-12860
架	-12861
祈	-12862
范	-12863
顾	-12864
餐	-12865
鼻	-12866
土	-12867
奔	-12868
富	-12869
展	-12870
林	-12871
版	-12872
环	-12873
获	-12874
适	-12875
闻	-12876
族	-12877
沙	-12878
背	-12879
企	-12880
威	-12881
属	-12882
拜	-12883
良	-12884
仅	-12885
婆	-12886
漂	-12887
父	-12888
签	-12889
约	-12890
冒	-12891
冲	-12892
士	-12893
挖	-12894
棒	-12895
模	-12896
预	-12897
f	-12898
优	-12899
困	-12900
圆	-12901
夫	-12902
恐	-12903
据	-12904
治	-12905
湖	-12906
脖	-12907
贝	-12908
伴	-12909
吐	-12910
毒	-12911
烈	-12912
烧	-12913
状	-12914
私	-12915
组	-12916
胡	-12917
责	-12918
修	-12919
宁	-12920
弃	-12921
恋	-12922
沉	-12923
泡	-12924
灯	-12925
甚	-12926
秋	-12927
纯	-12928
银	-12929
陈	-12930
集	-12931
鸡	-12932
龙	-12933
免	-12934
吓	-12935
堂	-12936
敬	-12937
晨	-12938
河	-12939
烂	-12940
称	-12941
舍	-12942
蜡	-12943
议	-12944
限	-12945
七	-12946
付	-12947
兄	-12948
操	-12949
束	-12950
欣	-12951
灵	-12952
爆	-12953
独	-12954
省	-12955
般	-12956
遍	-12957
际	-12958
严	-12959
争	-12960
休	-12961
咯	-12962
妇	-12963
律	-12964
承	-12965
抽	-12966
担	-12967
料	-12968
猫	-12969
缺	-12970
腿	-12971
舒	-12972
追	-12973
铁	-12974
锅	-12975
须	-12976
U	-12977
v	-12978
克	-12979
咱	-12980
善	-12981
姑	-12982
弱	-12983
录	-12984
普	-12985
智	-12986
末	-12987
村	-12988
熟	-12989
纳	-12990
聚	-12991
胖	-12992
航	-12993
萌	-12994
豆	-12995
负	-12996
贴	-12997
镜	-12998
鬼	-12999
俺	-13000
劳	-13001
娜	-13002
屈	-13003
庚	-13004
投	-13005
拥	-13006
标	-13007
祷	-13008
罪	-13009
肯	-13010
访	-13011
酸	-13012
闷	-13013
馆	-13014
鱼	-13015
丢	-13016
抢	-13017
挂	-13018
茶	-13019
败	-13020
骗	-13021
Q	-13022
丫	-13023
则	-13024
古	-13025
叹	-13026
媒	-13027
宣	-13028
技	-13029
狠	-13030
罗	-13031
谓	-13032
财	-13033
辈	-13034
W	-13035
况	-13036
器	-13037
坑	-13038
幕	-13039
异	-13040
急	-13041
招	-13042
朝	-13043
源	-13044
烛	-13045
登	-13046
码	-13047
误	-13048
跳	-13049
j	-13050
临	-13051
吸	-13052
左	-13053
择	-13054
既	-13055
杰	-13056
猪	-13057
率	-13058
甜	-13059
益	-13060
究	-13061
端	-13062
股	-13063
销	-13064
雷	-13065
频	-13066
划	-13067
唉	-13068
嗷	-13069
引	-13070
材	-13071
松	-13072
查	-13073
犯	-13074
珍	-13075
答	-13076
规	-13077
兰	-13078
势	-13079
奋	-13080
忽	-13081
散	-13082
暴	-13083
杂	-13084
树	-13085
潮	-13086
盘	-13087
细	-13088
迎	-13089
骨	-13090
鲜	-13091
佛	-13092
俩	-13093
圈	-13094
恭	-13095
惯	-13096
曲	-13097
毕	-13098
汉	-13099
澡	-13100
石	-13101
腾	-13102
补	-13103
衰	-13104
较	-13105
遗	-13106
露	-13107
x	-13108
介	-13109
叔	-13110
售	-13111
守	-13112
座	-13113
摄	-13114
暗	-13115
洋	-13116
港	-13117
滚	-13118
耳	-13119
肿	-13120
购	-13121
赏	-13122
软	-13123
释	-13124
顿	-13125
%	-13126
党	-13127
寒	-13128
射	-13129
屋	-13130
岛	-13131
巨	-13132
恩	-13133
慕	-13134
擦	-13135
波	-13136
浩	-13137
职	-13138
脱	-13139
苏	-13140
营	-13141
酷	-13142
验	-13143
冠	-13144
击	-13145
刷	-13146
占	-13147
印	-13148
右	-13149
咋	-13150
托	-13151
旁	-13152
泰	-13153
混	-13154
漫	-13155
牙	-13156
瞬	-13157
移	-13158
置	-13159
羡	-13160
莫	-13161
藏	-13162
趣	-13163
险	-13164
顶	-13165
亿	-13166
余	-13167
刘	-13168
增	-13169
尊	-13170
扫	-13171
拆	-13172
拖	-13173
痴	-13174
睛	-13175
纠	-13176
练	-13177
绿	-13178
采	-13179
降	-13180
颜	-13181
z	-13182
乖	-13183
判	-13184
劲	-13185
境	-13186
奖	-13187
密	-13188
帝	-13189
惨	-13190
戴	-13191
撞	-13192
斗	-13193
楚	-13194
毁	-13195
疑	-13196
肥	-13197
艳	-13198
萨	-13199
野	-13200
|	-13201
举	-13202
仁	-13203
伙	-13204
伟	-13205
典	-13206
刀	-13207
批	-13208
拼	-13209
援	-13210
摆	-13211
晓	-13212
欧	-13213
牵	-13214
积	-13215
胜	-13216
荣	-13217
虚	-13218
袋	-13219
诺	-13220
郁	-13221
闪	-13222
允	-13223
刺	-13224
升	-13225
吉	-13226
吼	-13227
呆	-13228
呜	-13229
哟	-13230
堆	-13231
壮	-13232
孙	-13233
宇	-13234
层	-13235
庭	-13236
悔	-13237
按	-13238
欲	-13239
灾	-13240
瘦	-13241
纪	-13242
绩	-13243
诚	-13244
貌	-13245
辑	-13246
防	-13247
+	-13248
」	-13249
估	-13250
催	-13251
净	-13252
吻	-13253
妞	-13254
宾	-13255
峰	-13256
挑	-13257
泥	-13258
甲	-13259
碎	-13260
禁	-13261
若	-13262
裤	-13263
贱	-13264
轮	-13265
退	-13266
透	-13267
鄙	-13268
项	-13269
丰	-13270
九	-13271
勇	-13272
寂	-13273
封	-13274
愤	-13275
懒	-13276
摇	-13277
检	-13278
烟	-13279
献	-13280
畅	-13281
耐	-13282
腰	-13283
诗	-13284
供	-13285
借	-13286
偏	-13287
傲	-13288
减	-13289
喊	-13290
堵	-13291
季	-13292
宫	-13293
察	-13294
森	-13295
毫	-13296
瓜	-13297
瓶	-13298
秒	-13299
织	-13300
腐	-13301
荐	-13302
赚	-13303
遭	-13304
避	-13305
隐	-13306
「	-13307
乡	-13308
仔	-13309
凉	-13310
吵	-13311
尚	-13312
屏	-13313
彻	-13314
挤	-13315
控	-13316
搭	-13317
撒	-13318
朵	-13319
玉	-13320
碰	-13321
祖	-13322
箱	-13323
耻	-13324
距	-13325
逛	-13326
闭	-13327
饿	-13328
仍	-13329
佳	-13330
冬	-13331
危	-13332
夸	-13333
奈	-13334
寞	-13335
巧	-13336
悦	-13337
执	-13338
敏	-13339
枪	-13340
瑞	-13341
硬	-13342
碗	-13343
秘	-13344
租	-13345
糖	-13346
编	-13347
罚	-13348
`	-13349
亏	-13350
互	-13351
仙	-13352
厉	-13353
厚	-13354
吴	-13355
央	-13356
娱	-13357
寻	-13358
归	-13359
搬	-13360
映	-13361
桌	-13362
湾	-13363
穷	-13364
肚	-13365
蓝	-13366
辣	-13367
针	-13368
麦	-13369
來	-13370
县	-13371
咖	-13372
怨	-13373
愛	-13374
慰	-13375
敌	-13376
槽	-13377
欺	-13378
汤	-13379
派	-13380
测	-13381
溃	-13382
盆	-13383
眠	-13384
祥	-13385
税	-13386
臭	-13387
触	-13388
贪	-13389
踏	-13390
途	-13391
郑	-13392
闲	-13393
魂	-13394
列	-13395
圾	-13396
垃	-13397
娃	-13398
孤	-13399
宅	-13400
尤	-13401
憾	-13402
扎	-13403
挥	-13404
朴	-13405
洲	-13406
济	-13407
渐	-13408
皇	-13409
辆	-13410
输	-13411
阴	-13412
革	-13413
额	-13414
鸭	-13415
乏	-13416
佩	-13417
冻	-13418
凌	-13419
厅	-13420
堪	-13421
宿	-13422
崩	-13423
扰	-13424
抗	-13425
晒	-13426
杨	-13427
桃	-13428
梅	-13429
汇	-13430
浮	-13431
熊	-13432
盖	-13433
羊	-13434
脏	-13435
训	-13436
词	-13437
载	-13438
颗	-13439
骄	-13440
鸟	-13441
刑	-13442
删	-13443
副	-13444
啡	-13445
噢	-13446
培	-13447
墨	-13448
姨	-13449
截	-13450
扯	-13451
抵	-13452
核	-13453
沟	-13454
炒	-13455
窗	-13456
缘	-13457
虑	-13458
谐	-13459
逃	-13460
這	-13461
键	-13462
附	-13463
雄	-13464
仰	-13465
伦	-13466
勒	-13467
卧	-13468
吹	-13469
墙	-13470
尝	-13471
延	-13472
徽	-13473
愚	-13474
摸	-13475
柔	-13476
汽	-13477
津	-13478
猛	-13479
监	-13480
研	-13481
磨	-13482
络	-13483
翔	-13484
胸	-13485
著	-13486
蜜	-13487
赵	-13488
踢	-13489
镇	-13490
陆	-13491
馨	-13492
丑	-13493
凭	-13494
含	-13495
哮	-13496
喷	-13497
嘉	-13498
妖	-13499
宜	-13500
审	-13501
悠	-13502
扬	-13503
括	-13504
拾	-13505
撑	-13506
替	-13507
概	-13508
歉	-13509
淘	-13510
灭	-13511
篇	-13512
绪	-13513
耀	-13514
薄	-13515
融	-13516
饱	-13517
驾	-13518
丹	-13519
剪	-13520
咆	-13521
咬	-13522
固	-13523
圣	-13524
圳	-13525
塞	-13526
妙	-13527
席	-13528
征	-13529
忧	-13530
慌	-13531
扣	-13532
抄	-13533
抛	-13534
抹	-13535
捧	-13536
握	-13537
窝	-13538
粗	-13539
纹	-13540
苍	-13541
裁	-13542
豪	-13543
贺	-13544
赔	-13545
躁	-13546
迟	-13547
递	-13548
隔	-13549
零	-13550
俊	-13551
剩	-13552
卑	-13553
喔	-13554
均	-13555
幼	-13556
徐	-13557
怖	-13558
悉	-13559
愉	-13560
慨	-13561
拒	-13562
插	-13563
摔	-13564
染	-13565
浓	-13566
灰	-13567
田	-13568
申	-13569
稳	-13570
策	-13571
胃	-13572
荒	-13573
虎	-13574
讯	-13575
辉	-13576
辱	-13577
迁	-13578
迹	-13579
郭	-13580
钢	-13581
馋	-13582
魔	-13583
亡	-13584
例	-13585
倍	-13586
凡	-13587
协	-13588
卷	-13589
叶	-13590
启	-13591
唐	-13592
喂	-13593
嗨	-13594
埋	-13595
夺	-13596
娇	-13597
寄	-13598
构	-13599
档	-13600
洪	-13601
淋	-13602
滋	-13603
焦	-13604
瑟	-13605
稿	-13606
章	-13607
筒	-13608
糊	-13609
绍	-13610
缓	-13611
芒	-13612
葱	-13613
裙	-13614
赫	-13615
醉	-13616
阵	-13617
魅	-13618
▽	-13619
串	-13620
予	-13621
俗	-13622
個	-13623
册	-13624
励	-13625
厦	-13626
君	-13627
咒	-13628
咔	-13629
哀	-13630
恼	-13631
悟	-13632
拔	-13633
损	-13634
施	-13635
旗	-13636
旦	-13637
池	-13638
污	-13639
沈	-13640
浴	-13641
潜	-13642
澈	-13643
熬	-13644
甘	-13645
瞎	-13646
笨	-13647
纷	-13648
缭	-13649
耍	-13650
胆	-13651
舔	-13652
蛮	-13653
躺	-13654
逝	-13655
還	-13656
锁	-13657
阶	-13658
飘	-13659
麼	-13660
鼠	-13661
伊	-13662
哲	-13663
喽	-13664
嗯	-13665
噶	-13666
孔	-13667
宵	-13668
巾	-13669
抬	-13670
授	-13671
摩	-13672
昌	-13673
榜	-13674
氛	-13675
洞	-13676
润	-13677
添	-13678
湿	-13679
滑	-13680
炸	-13681
爬	-13682
犬	-13683
盐	-13684
肩	-13685
脆	-13686
苹	-13687
诱	-13688
贤	-13689
轰	-13690
逗	-13691
酱	-13692
雅	-13693
颠	-13694
饼	-13695
龄	-13696
丁	-13697
乃	-13698
乘	-13699
亦	-13700
勤	-13701
厂	-13702
厕	-13703
呐	-13704
壁	-13705
夕	-13706
妆	-13707
妒	-13708
嫁	-13709
嫉	-13710
嫩	-13711
宽	-13712
尾	-13713
序	-13714
弹	-13715
悄	-13716
扭	-13717
抖	-13718
撼	-13719
攻	-13720
斤	-13721
暂	-13722
朗	-13723
桥	-13724
淚	-13725
炼	-13726
珉	-13727
番	-13728
疗	-13729
索	-13730
耗	-13731
聪	-13732
胞	-13733
艰	-13734
茫	-13735
菲	-13736
蕾	-13737
虫	-13738
谎	-13739
赢	-13740
述	-13741
邮	-13742
铺	-13743
霉	-13744
页	-13745
骚	-13746
齐	-13747
Z	-13748
佑	-13749
凶	-13750
咩	-13751
宋	-13752
寺	-13753
崇	-13754
帕	-13755
幻	-13756
库	-13757
弥	-13758
恒	-13759
愈	-13760
慈	-13761
挣	-13762
捡	-13763
探	-13764
掩	-13765
梯	-13766
横	-13767
樱	-13768
沃	-13769
泄	-13770
泣	-13771
洁	-13772
洒	-13773
涂	-13774
炎	-13775
炮	-13776
珠	-13777
瘾	-13778
砸	-13779
稀	-13780
肤	-13781
胶	-13782
舌	-13783
蒙	-13784
虐	-13785
裸	-13786
诸	-13787
谋	-13788
贫	-13789
贼	-13790
赖	-13791
跪	-13792
踩	-13793
遥	-13794
遮	-13795
陷	-13796
霸	-13797
饮	-13798
'	-13799
〒	-13800
伏	-13801
侵	-13802
凑	-13803
吖	-13804
咳	-13805
嘤	-13806
奸	-13807
姿	-13808
嫌	-13809
川	-13810
幅	-13811
彼	-13812
恢	-13813
惑	-13814
愁	-13815
捐	-13816
揪	-13817
敲	-13818
昏	-13819
杜	-13820
桑	-13821
桶	-13822
欠	-13823
沒	-13824
泛	-13825
浑	-13826
灿	-13827
犹	-13828
狱	-13829
甩	-13830
畏	-13831
症	-13832
皆	-13833
繁	-13834
绑	-13835
绕	-13836
综	-13837
翰	-13838
肠	-13839
莉	-13840
诅	-13841
谅	-13842
谣	-13843
谱	-13844
谷	-13845
躲	-13846
鑫	-13847
闺	-13848
驰	-13849
骑	-13850
鹅	-13851
→	-13852
★	-13853
乌	-13854
井	-13855
仿	-13856
伯	-13857
傅	-13858
剑	-13859
啧	-13860
囧	-13861
坛	-13862
坡	-13863
夹	-13864
奏	-13865
妻	-13866
媚	-13867
宰	-13868
幽	-13869
憋	-13870
抑	-13871
拦	-13872
挡	-13873
挨	-13874
杭	-13875
梨	-13876
淫	-13877
溜	-13878
漏	-13879
漠	-13880
灌	-13881
猜	-13882
略	-13883
疾	-13884
發	-13885
盗	-13886
碌	-13887
筋	-13888
粥	-13889
糟	-13890
纵	-13891
绵	-13892
翩	-13893
肌	-13894
荡	-13895
菊	-13896
萝	-13897
葵	-13898
裂	-13899
译	-13900
诶	-13901
赌	-13902
跃	-13903
辩	-13904
违	-13905
鉴	-13906
陌	-13907
饰	-13908
龟	-13909
■	-13910
丈	-13911
倾	-13912
兜	-13913
剂	-13914
動	-13915
呸	-13916
哄	-13917
噗	-13918
噩	-13919
囊	-13920
坦	-13921
堡	-13922
壳	-13923
宠	-13924
寨	-13925
寿	-13926
届	-13927
徒	-13928
悍	-13929
惹	-13930
慧	-13931
戳	-13932
搜	-13933
晟	-13934
泳	-13935
涉	-13936
涌	-13937
烤	-13938
煎	-13939
燃	-13940
琴	-13941
痹	-13942
皱	-13943
盛	-13944
祸	-13945
竹	-13946
筑	-13947
紫	-13948
罢	-13949
茜	-13950
蒲	-13951
览	-13952
讶	-13953
贡	-13954
返	-13955
迪	-13956
郎	-13957
链	-13958
锋	-13959
隆	-13960
障	-13961
╯	-13962
丧	-13963
仪	-13964
伪	-13965
伸	-13966
侧	-13967
俄	-13968
們	-13969
偿	-13970
兮	-13971
冤	-13972
剥	-13973
割	-13974
勾	-13975
厨	-13976
呦	-13977
嘎	-13978
嘲	-13979
垫	-13980
塑	-13981
塔	-13982
奢	-13983
婴	-13984
屠	-13985
帖	-13986
廉	-13987
愣	-13988
戒	-13989
扇	-13990
扑	-13991
扶	-13992
措	-13993
揉	-13994
摊	-13995
晃	-13996
晋	-13997
會	-13998
梁	-13999
歪	-14000
氓	-14001
沐	-14002
泉	-14003
洛	-14004
浅	-14005
涯	-14006
渴	-14007
狼	-14008
現	-14009
瓦	-14010
疲	-14011
痒	-14012
盒	-14013
睁	-14014
竞	-14015
纱	-14016
缩	-14017
艹	-14018
茂	-14019
莱	-14020
虹	-14021
衷	-14022
袭	-14023
跌	-14024
跨	-14025
迅	-14026
迫	-14027
邀	-14028
钉	-14029
钻	-14030
阻	-14031
饺	-14032
驶	-14033
*	-14034
>	-14035
┭	-14036
┮	-14037
╰	-14038
兵	-14039
兽	-14040
冯	-14041
凯	-14042
券	-14043
劣	-14044
咪	-14045
坤	-14046
墓	-14047
姚	-14048
孕	-14049
岩	-14050
岸	-14051
崔	-14052
廊	-14053
後	-14054
惠	-14055
惧	-14056
愧	-14057
扩	-14058
捏	-14059
捞	-14060
攀	-14061
旭	-14062
旺	-14063
昂	-14064
昆	-14065
朱	-14066
杠	-14067
枕	-14068
柳	-14069
桂	-14070
涕	-14071
涵	-14072
滥	-14073
煮	-14074
琳	-14075
盯	-14076
眉	-14077
稍	-14078
篮	-14079
肃	-14080
肆	-14081
脾	-14082
舟	-14083
舱	-14084
茅	-14085
莓	-14086
蒂	-14087
蒸	-14088
虾	-14089
蠢	-14090
覆	-14091
說	-14092
订	-14093
贩	-14094
趁	-14095
辅	-14096
邻	-14097
醋	-14098
阅	-14099
霜	-14100
魄	-14101
鲁	-14102
鹿	-14103
齿	-14104
仇	-14105
促	-14106
俏	-14107
凝	-14108
刊	-14109
劈	-14110
劝	-14111
勉	-14112
卢	-14113
卦	-14114
叉	-14115
吁	-14116
呛	-14117
咸	-14118
唤	-14119
嗲	-14120
嘞	-14121
填	-14122
姆	-14123
媳	-14124
孽	-14125
宗	-14126
尸	-14127
帐	-14128
帽	-14129
彭	-14130
抚	-14131
拨	-14132
携	-14133
撕	-14134
斜	-14135
旋	-14136
晰	-14137
晴	-14138
析	-14139
棵	-14140
椅	-14141
植	-14142
椒	-14143
毙	-14144
汁	-14145
泽	-14146
液	-14147
潇	-14148
炫	-14149
煞	-14150
牲	-14151
猴	-14152
玻	-14153
盼	-14154
盾	-14155
督	-14156
碘	-14157
秦	-14158
符	-14159
笼	-14160
罩	-14161
膀	-14162
船	-14163
芭	-14164
苗	-14165
蔡	-14166
薇	-14167
衡	-14168
衬	-14169
見	-14170
觅	-14171
誉	-14172
誓	-14173
赤	-14174
趟	-14175
践	-14176
辐	-14177
逆	-14178
逐	-14179
逻	-14180
邦	-14181
邪	-14182
铅	-14183
陀	-14184
鞠	-14185
颇	-14186
黎	-14187
<	-14188
\	-14189
∩	-14190
丸	-14191
乔	-14192
乞	-14193
仗	-14194
伍	-14195
侃	-14196
傍	-14197
召	-14198
吊	-14199
呈	-14200
呗	-14201
咧	-14202
唇	-14203
啸	-14204
嗒	-14205
嗽	-14206
噪	-14207
嚷	-14208
域	-14209
奉	-14210
奴	-14211
妮	-14212
宏	-14213
宴	-14214
寓	-14215
尘	-14216
尺	-14217
废	-14218
御	-14219
忒	-14220
忠	-14221
患	-14222
惩	-14223
扮	-14224
拎	-14225
振	-14226
掏	-14227
掰	-14228
揍	-14229
描	-14230
斑	-14231
杏	-14232
柏	-14233
棍	-14234
歇	-14235
渡	-14236
渣	-14237
漆	-14238
狮	-14239
猖	-14240
猥	-14241
珊	-14242
琐	-14243
瑕	-14244
疚	-14245
痕	-14246
痘	-14247
眨	-14248
睹	-14249
瞧	-14250
矮	-14251
稻	-14252
籍	-14253
粽	-14254
纽	-14255
缝	-14256
羽	-14257
翼	-14258
肝	-14259
腹	-14260
膜	-14261
臂	-14262
芬	-14263
莎	-14264
萄	-14265
葡	-14266
蔽	-14267
蛇	-14268
衫	-14269
讽	-14270
诡	-14271
账	-14272
贯	-14273
贸	-14274
蹲	-14275
躬	-14276
辞	-14277
過	-14278
酬	-14279
铖	-14280
雕	-14281
颤	-14282
≦	-14283
≧	-14284
□	-14285
〈	-14286
亭	-14287
伐	-14288
侠	-14289
俱	-14290
凤	-14291
刮	-14292
厘	-14293
咚	-14294
哗	-14295
唧	-14296
啃	-14297
喧	-14298
嗓	-14299
圭	-14300
址	-14301
坊	-14302
垮	-14303
奕	-14304
娶	-14305
媛	-14306
寝	-14307
巡	-14308
庙	-14309
廷	-14310
忌	-14311
忐	-14312
忑	-14313
怡	-14314
戚	-14315
扔	-14316
拘	-14317
捕	-14318
旱	-14319
晶	-14320
曝	-14321
柱	-14322
柴	-14323
歹	-14324
汰	-14325
沫	-14326
泼	-14327
淇	-14328
溪	-14329
潘	-14330
澳	-14331
烫	-14332
無	-14333
煌	-14334
煤	-14335
熙	-14336
爪	-14337
牺	-14338
琢	-14339
璃	-14340
畜	-14341
疆	-14342
癌	-14343
盲	-14344
眸	-14345
砍	-14346
砖	-14347
碑	-14348
碧	-14349
碳	-14350
祭	-14351
秩	-14352
粮	-14353
給	-14354
缴	-14355
罐	-14356
罕	-14357
胁	-14358
腻	-14359
芋	-14360
芝	-14361
萱	-14362
葛	-14363
董	-14364
薪	-14365
蟹	-14366
袁	-14367
谴	-14368
趴	-14369
轩	-14370
辜	-14371
逸	-14372
遠	-14373
邓	-14374
铃	-14375
铭	-14376
锻	-14377
阁	-14378
陶	-14379
飙	-14380
饶	-14381
馒	-14382
麽	-14383
伞	-14384
侄	-14385
侣	-14386
倡	-14387
债	-14388
储	-14389
兑	-14390
兼	-14391
凳	-14392
刹	-14393
勿	-14394
匆	-14395
匙	-14396
匪	-14397
卓	-14398
卜	-14399
叛	-14400
啤	-14401
喉	-14402
喘	-14403
嚣	-14404
嚼	-14405
坎	-14406
塌	-14407
妳	-14408
婷	-14409
婿	-14410
實	-14411
尖	-14412
尿	-14413
屑	-14414
岂	-14415
幂	-14416
庄	-14417
庸	-14418
弯	-14419
恤	-14420
悯	-14421
惬	-14422
惭	-14423
扁	-14424
押	-14425
拐	-14426
拳	-14427
挪	-14428
挫	-14429
挽	-14430
捷	-14431
掐	-14432
斥	-14433
暑	-14434
暮	-14435
枉	-14436
枝	-14437
樣	-14438
毯	-14439
沦	-14440
沧	-14441
沮	-14442
泊	-14443
浆	-14444
浏	-14445
涛	-14446
涩	-14447
淳	-14448
淹	-14449
渔	-14450
渝	-14451
烘	-14452
焚	-14453
焰	-14454
熏	-14455
燕	-14456
爵	-14457
牢	-14458
犀	-14459
狒	-14460
玫	-14461
玲	-14462
疙	-14463
疫	-14464
瘩	-14465
皂	-14466
眷	-14467
瞒	-14468
禽	-14469
粑	-14470
粘	-14471
粪	-14472
糯	-14473
绘	-14474
翘	-14475
耽	-14476
肇	-14477
肖	-14478
肮	-14479
肺	-14480
胀	-14481
脉	-14482
脊	-14483
腕	-14484
舆	-14485
芦	-14486
蓄	-14487
裕	-14488
裹	-14489
诊	-14490
诞	-14491
谊	-14492
谬	-14493
辰	-14494
辽	-14495
逢	-14496
遂	-14497
遛	-14498
酥	-14499
開	-14500
隶	-14501
雀	-14502
雾	-14503
霍	-14504
靓	-14505
颁	-14506
魏	-14507
鲸	-14508
鸣	-14509
°	-14510
╭	-14511
╮	-14512
侮	-14513
俞	-14514
倦	-14515
僵	-14516
儒	-14517
兆	-14518
兩	-14519
冕	-14520
凸	-14521
別	-14522
卸	-14523
叨	-14524
叮	-14525
吞	-14526
呕	-14527
哑	-14528
哨	-14529
唾	-14530
啪	-14531
喵	-14532
嗎	-14533
嚓	-14534
國	-14535
坠	-14536
坪	-14537
垄	-14538
埃	-14539
堕	-14540
墅	-14541
姜	-14542
姬	-14543
媽	-14544
宪	-14545
寶	-14546
對	-14547
屌	-14548
屡	-14549
屿	-14550
崛	-14551
崽	-14552
币	-14553
弗	-14554
役	-14555
径	-14556
循	-14557
恰	-14558
惦	-14559
惫	-14560
懊	-14561
戈	-14562
扼	-14563
披	-14564
拇	-14565
拟	-14566
拯	-14567
拽	-14568
挚	-14569
揭	-14570
搅	-14571
摘	-14572
摧	-14573
敛	-14574
昧	-14575
時	-14576
曹	-14577
曺	-14578
杆	-14579
柜	-14580
柿	-14581
桀	-14582
樂	-14583
歡	-14584
歧	-14585
殊	-14586
殴	-14587
淑	-14588
滨	-14589
滩	-14590
炉	-14591
為	-14592
焕	-14593
瑶	-14594
瓣	-14595
盈	-14596
禅	-14597
窃	-14598
窖	-14599
竖	-14600
笋	-14601
筷	-14602
箭	-14603
粹	-14604
紅	-14605
絮	-14606
經	-14607
绒	-14608
绽	-14609
翁	-14610
翅	-14611
聘	-14612
腔	-14613
腥	-14614
艾	-14615
芙	-14616
芳	-14617
苑	-14618
苟	-14619
茨	-14620
荷	-14621
莲	-14622
菇	-14623
菠	-14624
萍	-14625
葬	-14626
蒋	-14627
蒜	-14628
蔼	-14629
蚀	-14630
袜	-14631
親	-14632
豫	-14633
赐	-14634
赴	-14635
趋	-14636
跤	-14637
踪	-14638
蹈	-14639
迈	-14640
連	-14641
進	-14642
邵	-14643
郊	-14644
钞	-14645
铲	-14646
阜	-14647
雇	-14648
霞	-14649
靴	-14650
顽	-14651
颈	-14652
飛	-14653
饥	-14654
驱	-14655
驻	-14656
骜	-14657
鬓	-14658
麓	-14659
點	-14660
π	-14661
’	-14662
⊙	-14663
〉	-14664
丘	-14665
丛	-14666
乒	-14667
亨	-14668
亩	-14669
侈	-14670
偕	-14671
凛	-14672
刁	-14673
削	-14674
厢	-14675
厮	-14676
吠	-14677
呃	-14678
咙	-14679
哉	-14680
喻	-14681
嘘	-14682
嘟	-14683
嘢	-14684
嘱	-14685
噜	-14686
圖	-14687
坨	-14688
場	-14689
塘	-14690
壹	-14691
妍	-14692
妨	-14693
姻	-14694
婉	-14695
嫂	-14696
嫖	-14697
孝	-14698
尬	-14699
尴	-14700
尹	-14701
岗	-14702
峡	-14703
嵘	-14704
巫	-14705
庞	-14706
彪	-14707
忏	-14708
怂	-14709
恳	-14710
惕	-14711
惟	-14712
憬	-14713
扛	-14714
捉	-14715
掠	-14716
攒	-14717
敷	-14718
斋	-14719
東	-14720
枚	-14721
柄	-14722
柯	-14723
栏	-14724
框	-14725
棉	-14726
棚	-14727
榨	-14728
橙	-14729
機	-14730
氏	-14731
氰	-14732
沿	-14733
洙	-14734
浒	-14735
浦	-14736
浸	-14737
淀	-14738
溢	-14739
滿	-14740
潭	-14741
潺	-14742
澜	-14743
炖	-14744
炜	-14745
炭	-14746
煲	-14747
玄	-14748
琪	-14749
瑜	-14750
瑰	-14751
璐	-14752
疏	-14753
痞	-14754
痨	-14755
痰	-14756
睫	-14757
瞌	-14758
瞪	-14759
矛	-14760
矿	-14761
硫	-14762
碍	-14763
碟	-14764
秃	-14765
稚	-14766
種	-14767
窑	-14768
窜	-14769
筹	-14770
纺	-14771
署	-14772
聆	-14773
胎	-14774
腊	-14775
膏	-14776
膨	-14777
臣	-14778
臻	-14779
芜	-14780
苋	-14781
茄	-14782
荧	-14783
莞	-14784
菅	-14785
菩	-14786
葫	-14787
蓓	-14788
蔓	-14789
蔚	-14790
蘑	-14791
蜀	-14792
蝇	-14793
蝎	-14794
衩	-14795
袍	-14796
袖	-14797
裡	-14798
話	-14799
謝	-14800
變	-14801
诈	-14802
诋	-14803
诠	-14804
详	-14805
诧	-14806
诩	-14807
谨	-14808
谩	-14809
贿	-14810
踌	-14811
蹋	-14812
蹭	-14813
邑	-14814
邱	-14815
郡	-14816
酿	-14817
醇	-14818
钓	-14819
钥	-14820
闯	-14821
阔	-14822
陋	-14823
隋	-14824
霄	-14825
飕	-14826
飯	-14827
馅	-14828
驴	-14829
骆	-14830
體	-14831
鸦	-14832
鸽	-14833
鸿	-14834
鹰	-14835
鼎	-14836
並	-14837
亥	-14838
仓	-14839
仕	-14840
仟	-14841
仨	-14842
仲	-14843
伺	-14844
佬	-14845
侬	-14846
侯	-14847
俯	-14848
倚	-14849
僧	-14850
兒	-14851
內	-14852
冈	-14853
凰	-14854
剖	-14855
劫	-14856
勃	-14857
勋	-14858
務	-14859
勺	-14860
匿	-14861
區	-14862
卤	-14863
叙	-14864
叠	-14865
叼	-14866
叽	-14867
吭	-14868
呱	-14869
咦	-14870
哆	-14871
哒	-14872
唰	-14873
啵	-14874
喀	-14875
喇	-14876
嗜	-14877
嚎	-14878
坝	-14879
垂	-14880
壤	-14881
夷	-14882
妃	-14883
妥	-14884
姊	-14885
婊	-14886
婶	-14887
孜	-14888
孟	-14889
學	-14890
宕	-14891
宙	-14892
寡	-14893
寥	-14894
屯	-14895
岚	-14896
岭	-14897
岳	-14898
崎	-14899
巍	-14900
帘	-14901
帶	-14902
張	-14903
強	-14904
彦	-14905
彰	-14906
彷	-14907
從	-14908
徨	-14909
怅	-14910
悚	-14911
悼	-14912
惋	-14913
惮	-14914
慎	-14915
憧	-14916
抒	-14917
抠	-14918
抡	-14919
捆	-14920
掘	-14921
撅	-14922
撇	-14923
攘	-14924
數	-14925
於	-14926
旷	-14927
昊	-14928
昭	-14929
暧	-14930
曦	-14931
朦	-14932
柠	-14933
栋	-14934
桐	-14935
桔	-14936
桩	-14937
梗	-14938
梭	-14939
梳	-14940
椰	-14941
楂	-14942
榻	-14943
檬	-14944
殇	-14945
殿	-14946
毅	-14947
汪	-14948
沁	-14949
沪	-14950
沾	-14951
浇	-14952
浙	-14953
涡	-14954
淆	-14955
湃	-14956
溅	-14957
溫	-14958
滔	-14959
滤	-14960
漓	-14961
漩	-14962
澎	-14963
灸	-14964
灼	-14965
烽	-14966
牧	-14967
狡	-14968
狭	-14969
猎	-14970
猕	-14971
瓷	-14972
甥	-14973
甭	-14974
疡	-14975
疮	-14976
瘫	-14977
癫	-14978
皿	-14979
睦	-14980
矣	-14981
矶	-14982
硕	-14983
碉	-14984
磺	-14985
祟	-14986
禹	-14987
窘	-14988
窦	-14989
笛	-14990
筝	-14991
粒	-14992
糙	-14993
纶	-14994
绎	-14995
绞	-14996
绯	-14997
绳	-14998
绸	-14999
缕	-15000
罵	-15001
羅	-15002
耕	-15003
耿	-15004
聒	-15005
肋	-15006
胺	-15007
腆	-15008
腺	-15009
腼	-15010
膝	-15011
舅	-15012
舜	-15013
芼	-15014
荫	-15015
菌	-15016
萎	-15017
萤	-15018
萧	-15019
蕉	-15020
薯	-15021
蚁	-15022
蚂	-15023
蚊	-15024
蜗	-15025
螺	-15026
衅	-15027
袅	-15028
褶	-15029
襟	-15030
視	-15031
覺	-15032
記	-15033
説	-15034
議	-15035
讓	-15036
诀	-15037
询	-15038
诽	-15039
谤	-15040
谦	-15041
豁	-15042
貓	-15043
贷	-15044
赋	-15045
赠	-15046
趾	-15047
跋	-15048
跛	-15049
踹	-15050
蹬	-15051
轨	-15052
辨	-15053
逮	-15054
遣	-15055
釜	-15056
钵	-15057
铜	-15058
锐	-15059
锦	-15060
闸	-15061
阎	-15062
阑	-15063
阮	-15064
陵	-15065
雖	-15066
離	-15067
難	-15068
電	-15069
霓	-15070
靖	-15071
韵	-15072
颂	-15073
颐	-15074
颖	-15075
驭	-15076
驳	-15077
驼	-15078
骷	-15079
髅	-15080
鱿	-15081
鲨	-15082
鹏	-15083
鹭	-15084
麟	-15085
黯	-15086
¬	-15087
ω	-15088
”	-15089
←	-15090
∴	-15091
≤	-15092
≥	-15093
⌒	-15094
┻	-15095
◎	-15096
〖	-15097
〗	-15098
ノ	-15099
丐	-15100
丶	-15101
乍	-15102
乓	-15103
乙	-15104
乳	-15105
乾	-15106
仆	-15107
佶	-15108
侦	-15109
俅	-15110
俘	-15111
俭	-15112
偌	-15113
傷	-15114
兢	-15115
兹	-15116
冥	-15117
冽	-15118
凄	-15119
函	-15120
刨	-15121
剐	-15122
剜	-15123
剽	-15124
勘	-15125
募	-15126
匍	-15127
匐	-15128
卵	-15129
卻	-15130
參	-15131
吏	-15132
吕	-15133
吱	-15134
吾	-15135
咂	-15136
咕	-15137
咫	-15138
咽	-15139
員	-15140
哧	-15141
哩	-15142
唠	-15143
唬	-15144
啷	-15145
啼	-15146
喃	-15147
喱	-15148
喳	-15149
喺	-15150
嗖	-15151
嗚	-15152
嗦	-15153
嘅	-15154
囚	-15155
囤	-15156
坞	-15157
坷	-15158
堤	-15159
塗	-15160
墩	-15161
壓	-15162
壞	-15163
壶	-15164
夢	-15165
夭	-15166
奠	-15167
妄	-15168
妩	-15169
姥	-15170
娅	-15171
娆	-15172
娑	-15173
娴	-15174
嬉	-15175
孬	-15176
寐	-15177
寰	-15178
寸	-15179
屉	-15180
屹	-15181
峨	-15182
峻	-15183
嵩	-15184
巅	-15185
巢	-15186
巷	-15187
帆	-15188
幌	-15189
幫	-15190
幾	-15191
弊	-15192
彬	-15193
復	-15194
忻	-15195
怯	-15196
恣	-15197
惆	-15198
惰	-15199
惴	-15200
愫	-15201
慵	-15202
憎	-15203
憨	-15204
懈	-15205
懦	-15206
懵	-15207
懷	-15208
扈	-15209
扒	-15210
抧	-15211
抿	-15212
拓	-15213
拣	-15214
拷	-15215
挎	-15216
挠	-15217
捂	-15218
捅	-15219
捍	-15220
捣	-15221
捶	-15222
搁	-15223
搓	-15224
摁	-15225
撂	-15226
撩	-15227
攝	-15228
敦	-15229
斎	-15230
斡	-15231
昰	-15232
昼	-15233
晖	-15234
晾	-15235
暄	-15236
暨	-15237
曙	-15238
杉	-15239
栓	-15240
株	-15241
栽	-15242
梓	-15243
棋	-15244
棠	-15245
椎	-15246
榴	-15247
槐	-15248
槟	-15249
樟	-15250
橘	-15251
橡	-15252
橱	-15253
殖	-15254
殘	-15255
殷	-15256
殺	-15257
氟	-15258
氦	-15259
氧	-15260
氯	-15261
汕	-15262
汶	-15263
沥	-15264
沸	-15265
泯	-15266
浊	-15267
淅	-15268
淌	-15269
淮	-15270
渲	-15271
渺	-15272
溶	-15273
潍	-15274
瀑	-15275
瀛	-15276
灣	-15277
炽	-15278
烊	-15279
煽	-15280
熱	-15281
爭	-15282
犁	-15283
猾	-15284
猿	-15285
獗	-15286
琨	-15287
琼	-15288
瑚	-15289
瑾	-15290
瓯	-15291
甫	-15292
當	-15293
畸	-15294
疤	-15295
疵	-15296
痪	-15297
瘪	-15298
皓	-15299
盏	-15300
盟	-15301
眶	-15302
睇	-15303
睽	-15304
瞅	-15305
瞳	-15306
矫	-15307
砺	-15308
础	-15309
碴	-15310
磁	-15311
磅	-15312
祁	-15313
祛	-15314
秧	-15315
穆	-15316
窈	-15317
窕	-15318
竭	-15319
筐	-15320
箴	-15321
範	-15322
篝	-15323
簽	-15324
粕	-15325
糗	-15326
糸	-15327
結	-15328
絲	-15329
總	-15330
绉	-15331
绚	-15332
缅	-15333
缔	-15334
缠	-15335
缦	-15336
缨	-15337
罒	-15338
羁	-15339
羹	-15340
翠	-15341
聂	-15342
肾	-15343
胧	-15344
胳	-15345
脂	-15346
脓	-15347
膊	-15348
臉	-15349
臊	-15350
與	-15351
舛	-15352
艘	-15353
芪	-15354
芯	-15355
芷	-15356
芽	-15357
苇	-15358
苞	-15359
茉	-15360
荆	-15361
莽	-15362
菡	-15363
華	-15364
萬	-15365
葩	-15366
蓦	-15367
蔑	-15368
蔫	-15369
蔬	-15370
薛	-15371
薰	-15372
號	-15373
蚕	-15374
蛛	-15375
蛤	-15376
蜂	-15377
蜘	-15378
蜚	-15379
蜷	-15380
蝈	-15381
蝶	-15382
衍	-15383
袢	-15384
裔	-15385
褪	-15386
計	-15387
設	-15388
誰	-15389
課	-15390
讪	-15391
谗	-15392
谭	-15393
豹	-15394
貝	-15395
貨	-15396
資	-15397
贊	-15398
贬	-15399
贾	-15400
赂	-15401
赃	-15402
赎	-15403
跷	-15404
踊	-15405
蹦	-15406
躯	-15407
轿	-15408
辍	-15409
辖	-15410
辘	-15411
辙	-15412
辟	-15413
迄	-15414
迢	-15415
逊	-15416
逍	-15417
逞	-15418
遏	-15419
遐	-15420
遵	-15421
邹	-15422
钙	-15423
钛	-15424
钝	-15425
钧	-15426
铝	-15427
铬	-15428
锚	-15429
锣	-15430
镯	-15431
長	-15432
阄	-15433
陕	-15434
陨	-15435
隘	-15436
雍	-15437
雳	-15438
霹	-15439
鞭	-15440
韦	-15441
韭	-15442
韶	-15443
順	-15444
預	-15445
題	-15446
顏	-15447
願	-15448
顯	-15449
颅	-15450
颊	-15451
颦	-15452
風	-15453
飒	-15454
饯	-15455
饲	-15456
馈	-15457
馍	-15458
驚	-15459
骇	-15460
骋	-15461
骐	-15462
骡	-15463
骤	-15464
骥	-15465
髓	-15466
髦	-15467
髮	-15468
魁	-15469
鹤	-15470
麗	-15471
黍	-15472
黔	-15473
黛	-15474
黨	-15475
龊	-15476
¥	-15477
§	-15478
×	-15479
ε	-15480
Д	-15481
д	-15482
з	-15483
∠	-15484
━	-15485
┏	-15486
┓	-15487
▲	-15488
☆	-15489
〔	-15490
〕	-15491
の	-15492
シ	-15493
テ	-15494
メ	-15495
ヲ	-15496
丕	-15497
乜	-15498
亀	-15499
亘	-15500
亞	-15501
亢	-15502
亵	-15503
伱	-15504
伶	-15505
佣	-15506
佯	-15507
侨	-15508
俎	-15509
俐	-15510
俨	-15511
俪	-15512
倔	-15513
倩	-15514
倪	-15515
偎	-15516
備	-15517
傣	-15518
傭	-15519
傳	-15520
僅	-15521
兇	-15522
冉	-15523
冗	-15524
冶	-15525
冿	-15526
凋	-15527
凹	-15528
刃	-15529
剁	-15530
剃	-15531
剔	-15532
剛	-15533
劉	-15534
勢	-15535
匕	-15536
匠	-15537
匮	-15538
匹	-15539
卿	-15540
叟	-15541
叩	-15542
叭	-15543
叻	-15544
吆	-15545
吋	-15546
吟	-15547
吡	-15548
呲	-15549
咁	-15550
咏	-15551
咐	-15552
咛	-15553
咨	-15554
哃	-15555
唏	-15556
唔	-15557
唷	-15558
啍	-15559
問	-15560
啕	-15561
啖	-15562
啜	-15563
啩	-15564
啰	-15565
喆	-15566
嗅	-15567
嗑	-15568
嗔	-15569
嗝	-15570
嗤	-15571
嗫	-15572
嗳	-15573
噉	-15574
噙	-15575
噬	-15576
噱	-15577
噴	-15578
噻	-15579
嚄	-15580
嚏	-15581
嚟	-15582
嚴	-15583
囍	-15584
囔	-15585
囖	-15586
圍	-15587
園	-15588
圓	-15589
團	-15590
圜	-15591
坍	-15592
坟	-15593
垠	-15594
垡	-15595
垢	-15596
垭	-15597
埂	-15598
埗	-15599
埲	-15600
埸	-15601
墉	-15602
墟	-15603
壑	-15604
夙	-15605
奎	-15606
契	-15607
奚	-15608
妝	-15609
妫	-15610
妾	-15611
娥	-15612
娩	-15613
娼	-15614
婀	-15615
婪	-15616
嫔	-15617
嫣	-15618
嬅	-15619
嬛	-15620
孚	-15621
寇	-15622
寧	-15623
寫	-15624
寵	-15625
尅	-15626
將	-15627
專	-15628
尜	-15629
屄	-15630
屬	-15631
岀	-15632
岖	-15633
峥	-15634
峯	-15635
崭	-15636
崴	-15637
嶼	-15638
巩	-15639
帜	-15640
帥	-15641
師	-15642
帷	-15643
帼	-15644
庇	-15645
廓	-15646
廠	-15647
弈	-15648
弦	-15649
忤	-15650
忿	-15651
恃	-15652
恍	-15653
恕	-15654
恸	-15655
恺	-15656
悖	-15657
悬	-15658
惘	-15659
惚	-15660
惶	-15661
慑	-15662
慣	-15663
慮	-15664
慷	-15665
憂	-15666
憶	-15667
戀	-15668
戆	-15669
戰	-15670
扉	-15671
扪	-15672
抨	-15673
抻	-15674
拂	-15675
拌	-15676
拙	-15677
拢	-15678
拭	-15679
拱	-15680
拴	-15681
挻	-15682
捎	-15683
捨	-15684
捻	-15685
掂	-15686
掖	-15687
掷	-15688
掹	-15689
掺	-15690
揣	-15691
揮	-15692
搀	-15693
搂	-15694
搔	-15695
搡	-15696
摞	-15697
撵	-15698
擀	-15699
擇	-15700
擒	-15701
擔	-15702
擞	-15703
攸	-15704
敖	-15705
敗	-15706
敞	-15707
敵	-15708
斓	-15709
斧	-15710
旬	-15711
昀	-15712
昔	-15713
昕	-15714
昵	-15715
晗	-15716
暇	-15717
曰	-15718
札	-15719
朽	-15720
杈	-15721
杖	-15722
杞	-15723
杷	-15724
枇	-15725
枣	-15726
枯	-15727
枰	-15728
枸	-15729
栈	-15730
栗	-15731
桓	-15732
桷	-15733
條	-15734
梢	-15735
棕	-15736
棘	-15737
棟	-15738
棺	-15739
楠	-15740
楷	-15741
榄	-15742
榛	-15743
榭	-15744
槛	-15745
樑	-15746
橄	-15747
檀	-15748
歲	-15749
殃	-15750
殆	-15751
殉	-15752
殒	-15753
殓	-15754
毂	-15755
毡	-15756
氢	-15757
氣	-15758
氨	-15759
決	-15760
沂	-15761
沏	-15762
沓	-15763
沭	-15764
沱	-15765
沽	-15766
泓	-15767
泞	-15768
洌	-15769
洸	-15770
洼	-15771
洽	-15772
浡	-15773
涎	-15774
涝	-15775
涟	-15776
涤	-15777
涧	-15778
涮	-15779
涸	-15780
涼	-15781
淨	-15782
渊	-15783
渍	-15784
渎	-15785
渤	-15786
渭	-15787
湘	-15788
湛	-15789
溉	-15790
準	-15791
溯	-15792
溺	-15793
滂	-15794
滓	-15795
滕	-15796
滞	-15797
漪	-15798
漳	-15799
潤	-15800
潸	-15801
澄	-15802
澤	-15803
濒	-15804
濠	-15805
濡	-15806
濮	-15807
瀚	-15808
灏	-15809
灘	-15810
灶	-15811
炀	-15812
炅	-15813
炕	-15814
炙	-15815
炬	-15816
炯	-15817
炳	-15818
烙	-15819
焊	-15820
焖	-15821
焙	-15822
焱	-15823
熄	-15824
熔	-15825
燎	-15826
燒	-15827
燥	-15828
牟	-15829
牡	-15830
犊	-15831
犒	-15832
狈	-15833
狐	-15834
狞	-15835
狩	-15836
狰	-15837
獎	-15838
獨	-15839
獲	-15840
獴	-15841
珈	-15842
珑	-15843
琦	-15844
瑄	-15845
璀	-15846
璟	-15847
璨	-15848
瓢	-15849
瓤	-15850
甄	-15851
甬	-15852
甸	-15853
畔	-15854
畴	-15855
疹	-15856
痔	-15857
痢	-15858
痧	-15859
瘁	-15860
瘆	-15861
瘌	-15862
瘠	-15863
瘤	-15864
皖	-15865
盎	-15866
盔	-15867
眩	-15868
眯	-15869
眺	-15870
睐	-15871
睾	-15872
睿	-15873
瞄	-15874
瞰	-15875
瞻	-15876
矜	-15877
矢	-15878
矩	-15879
砒	-15880
砣	-15881
硅	-15882
碾	-15883
磊	-15884
磕	-15885
祚	-15886
祠	-15887
祺	-15888
禧	-15889
禮	-15890
秆	-15891
秉	-15892
秫	-15893
秸	-15894
秽	-15895
稽	-15896
穴	-15897
竦	-15898
竺	-15899
竽	-15900
筛	-15901
筠	-15902
箔	-15903
箩	-15904
節	-15905
簋	-15906
簸	-15907
簿	-15908
籁	-15909
籽	-15910
粤	-15911
糍	-15912
糜	-15913
紋	-15914
納	-15915
純	-15916
終	-15917
網	-15918
繼	-15919
續	-15920
纬	-15921
绅	-15922
绊	-15923
绣	-15924
绷	-15925
缄	-15926
缚	-15927
缤	-15928
缸	-15929
罔	-15930
羔	-15931
羨	-15932
羯	-15933
翀	-15934
習	-15935
耘	-15936
耸	-15937
聋	-15938
聽	-15939
聿	-15940
肅	-15941
肢	-15942
肪	-15943
胚	-15944
胤	-15945
胯	-15946
胱	-15947
脐	-15948
脯	-15949
脲	-15950
腦	-15951
腮	-15952
膛	-15953
膳	-15954
膻	-15955
臥	-15956
臨	-15957
臺	-15958
舊	-15959
舰	-15960
艇	-15961
芥	-15962
芩	-15963
芮	-15964
苔	-15965
茁	-15966
茧	-15967
茬	-15968
茹	-15969
荤	-15970
荼	-15971
莆	-15972
菁	-15973
葺	-15974
蓉	-15975
蓋	-15976
蓟	-15977
蔗	-15978
蔥	-15979
蔷	-15980
蔻	-15981
蕊	-15982
蕖	-15983
蕴	-15984
藉	-15985
藝	-15986
藤	-15987
藻	-15988
蘇	-15989
虔	-15990
蚍	-15991
蛎	-15992
蛙	-15993
蛾	-15994
蜃	-15995
